#include "model.h"

const unsigned char outputs_model_tflite[] = {
  0x1c, 0x00, 0x00, 0x00, 0x54, 0x46, 0x4c, 0x33, 0x14, 0x00, 0x20, 0x00,
  0x1c, 0x00, 0x18, 0x00, 0x14, 0x00, 0x10, 0x00, 0x0c, 0x00, 0x00, 0x00,
  0x08, 0x00, 0x04, 0x00, 0x14, 0x00, 0x00, 0x00, 0x1c, 0x00, 0x00, 0x00,
  0x88, 0x00, 0x00, 0x00, 0x08, 0x01, 0x00, 0x00, 0x74, 0x19, 0x00, 0x00,
  0x84, 0x19, 0x00, 0x00, 0xa4, 0x2c, 0x00, 0x00, 0x03, 0x00, 0x00, 0x00,
  0x01, 0x00, 0x00, 0x00, 0x04, 0x00, 0x00, 0x00, 0x52, 0xe4, 0xff, 0xff,
  0x0c, 0x00, 0x00, 0x00, 0x1c, 0x00, 0x00, 0x00, 0x3c, 0x00, 0x00, 0x00,
  0x0f, 0x00, 0x00, 0x00, 0x73, 0x65, 0x72, 0x76, 0x69, 0x6e, 0x67, 0x5f,
  0x64, 0x65, 0x66, 0x61, 0x75, 0x6c, 0x74, 0x00, 0x01, 0x00, 0x00, 0x00,
  0x04, 0x00, 0x00, 0x00, 0x6c, 0xff, 0xff, 0xff, 0x18, 0x00, 0x00, 0x00,
  0x04, 0x00, 0x00, 0x00, 0x08, 0x00, 0x00, 0x00, 0x6f, 0x75, 0x74, 0x70,
  0x75, 0x74, 0x5f, 0x30, 0x00, 0x00, 0x00, 0x00, 0x01, 0x00, 0x00, 0x00,
  0x04, 0x00, 0x00, 0x00, 0x36, 0xe6, 0xff, 0xff, 0x04, 0x00, 0x00, 0x00,
  0x0b, 0x00, 0x00, 0x00, 0x69, 0x6e, 0x70, 0x75, 0x74, 0x5f, 0x6c, 0x61,
  0x79, 0x65, 0x72, 0x00, 0x03, 0x00, 0x00, 0x00, 0x5c, 0x00, 0x00, 0x00,
  0x2c, 0x00, 0x00, 0x00, 0x04, 0x00, 0x00, 0x00, 0xb8, 0xff, 0xff, 0xff,
  0x1c, 0x00, 0x00, 0x00, 0x04, 0x00, 0x00, 0x00, 0x13, 0x00, 0x00, 0x00,
  0x43, 0x4f, 0x4e, 0x56, 0x45, 0x52, 0x53, 0x49, 0x4f, 0x4e, 0x5f, 0x4d,
  0x45, 0x54, 0x41, 0x44, 0x41, 0x54, 0x41, 0x00, 0xdc, 0xff, 0xff, 0xff,
  0x1b, 0x00, 0x00, 0x00, 0x04, 0x00, 0x00, 0x00, 0x13, 0x00, 0x00, 0x00,
  0x6d, 0x69, 0x6e, 0x5f, 0x72, 0x75, 0x6e, 0x74, 0x69, 0x6d, 0x65, 0x5f,
  0x76, 0x65, 0x72, 0x73, 0x69, 0x6f, 0x6e, 0x00, 0x08, 0x00, 0x0c, 0x00,
  0x08, 0x00, 0x04, 0x00, 0x08, 0x00, 0x00, 0x00, 0x1a, 0x00, 0x00, 0x00,
  0x04, 0x00, 0x00, 0x00, 0x13, 0x00, 0x00, 0x00, 0x6d, 0x69, 0x6e, 0x5f,
  0x72, 0x75, 0x6e, 0x74, 0x69, 0x6d, 0x65, 0x5f, 0x76, 0x65, 0x72, 0x73,
  0x69, 0x6f, 0x6e, 0x00, 0x1d, 0x00, 0x00, 0x00, 0x68, 0x18, 0x00, 0x00,
  0x60, 0x18, 0x00, 0x00, 0x4c, 0x18, 0x00, 0x00, 0x30, 0x18, 0x00, 0x00,
  0x1c, 0x18, 0x00, 0x00, 0x04, 0x18, 0x00, 0x00, 0xe4, 0x17, 0x00, 0x00,
  0xd4, 0x03, 0x00, 0x00, 0xa4, 0x03, 0x00, 0x00, 0x74, 0x03, 0x00, 0x00,
  0x44, 0x03, 0x00, 0x00, 0xb4, 0x02, 0x00, 0x00, 0x24, 0x01, 0x00, 0x00,
  0x1c, 0x01, 0x00, 0x00, 0x14, 0x01, 0x00, 0x00, 0x0c, 0x01, 0x00, 0x00,
  0x04, 0x01, 0x00, 0x00, 0xfc, 0x00, 0x00, 0x00, 0xf4, 0x00, 0x00, 0x00,
  0xec, 0x00, 0x00, 0x00, 0xe4, 0x00, 0x00, 0x00, 0xdc, 0x00, 0x00, 0x00,
  0xd4, 0x00, 0x00, 0x00, 0xcc, 0x00, 0x00, 0x00, 0xc4, 0x00, 0x00, 0x00,
  0xbc, 0x00, 0x00, 0x00, 0x9c, 0x00, 0x00, 0x00, 0x7c, 0x00, 0x00, 0x00,
  0x04, 0x00, 0x00, 0x00, 0x4a, 0xe7, 0xff, 0xff, 0x04, 0x00, 0x00, 0x00,
  0x68, 0x00, 0x00, 0x00, 0x0c, 0x00, 0x00, 0x00, 0x08, 0x00, 0x0e, 0x00,
  0x08, 0x00, 0x04, 0x00, 0x08, 0x00, 0x00, 0x00, 0x10, 0x00, 0x00, 0x00,
  0x28, 0x00, 0x00, 0x00, 0x00, 0x00, 0x06, 0x00, 0x08, 0x00, 0x04, 0x00,
  0x06, 0x00, 0x00, 0x00, 0x04, 0x00, 0x00, 0x00, 0x01, 0x00, 0x00, 0x00,
  0xeb, 0x03, 0x00, 0x00, 0x0c, 0x00, 0x1c, 0x00, 0x18, 0x00, 0x14, 0x00,
  0x10, 0x00, 0x04, 0x00, 0x0c, 0x00, 0x00, 0x00, 0x81, 0xb0, 0x08, 0x82,
  0x05, 0x09, 0xa7, 0x3b, 0x00, 0x00, 0x00, 0x00, 0x02, 0x00, 0x00, 0x00,
  0x02, 0x00, 0x00, 0x00, 0x04, 0x00, 0x00, 0x00, 0x0a, 0x00, 0x00, 0x00,
  0x32, 0x2e, 0x31, 0x37, 0x2e, 0x30, 0x2d, 0x72, 0x63, 0x31, 0x00, 0x00,
  0xbe, 0xe7, 0xff, 0xff, 0x04, 0x00, 0x00, 0x00, 0x10, 0x00, 0x00, 0x00,
  0x00, 0x00, 0x00, 0x00, 0x00, 0x00, 0x00, 0x00, 0x00, 0x00, 0x00, 0x00,
  0x00, 0x00, 0x00, 0x00, 0xda, 0xe7, 0xff, 0xff, 0x04, 0x00, 0x00, 0x00,
  0x10, 0x00, 0x00, 0x00, 0x31, 0x2e, 0x31, 0x34, 0x2e, 0x30, 0x00, 0x00,
  0x00, 0x00, 0x00, 0x00, 0x00, 0x00, 0x00, 0x00, 0x48, 0xd6, 0xff, 0xff,
  0x4c, 0xd6, 0xff, 0xff, 0x50, 0xd6, 0xff, 0xff, 0x54, 0xd6, 0xff, 0xff,
  0x58, 0xd6, 0xff, 0xff, 0x5c, 0xd6, 0xff, 0xff, 0x60, 0xd6, 0xff, 0xff,
  0x64, 0xd6, 0xff, 0xff, 0x68, 0xd6, 0xff, 0xff, 0x6c, 0xd6, 0xff, 0xff,
  0x70, 0xd6, 0xff, 0xff, 0x74, 0xd6, 0xff, 0xff, 0x78, 0xd6, 0xff, 0xff,
  0x2a, 0xe8, 0xff, 0xff, 0x04, 0x00, 0x00, 0x00, 0x80, 0x01, 0x00, 0x00,
  0x38, 0xe0, 0xb9, 0xab, 0x26, 0x7f, 0x60, 0xeb, 0x9f, 0xc8, 0x00, 0x37,
  0x11, 0xc4, 0xf2, 0xfa, 0xa9, 0x59, 0xfc, 0x7f, 0x3d, 0x35, 0x19, 0xf6,
  0x0f, 0x7f, 0xe5, 0xfe, 0x8e, 0xc8, 0xc6, 0x62, 0x0b, 0x12, 0x86, 0x4e,
  0x7f, 0xd6, 0xe0, 0x2d, 0xfb, 0xab, 0xa6, 0x65, 0x30, 0x95, 0xe0, 0x22,
  0xb0, 0xf4, 0x01, 0x81, 0xeb, 0xf5, 0x50, 0x18, 0x35, 0x79, 0x07, 0xe8,
  0x7f, 0x0d, 0x0b, 0x1d, 0xfe, 0xed, 0x86, 0xf1, 0xe7, 0xcf, 0x0a, 0x1c,
  0x7f, 0x0b, 0x03, 0xdf, 0xf0, 0xee, 0x98, 0x01, 0xf1, 0xff, 0x03, 0x12,
  0x7f, 0xe9, 0x0e, 0x4a, 0xdb, 0xdc, 0x6b, 0x11, 0x09, 0x40, 0xe0, 0xfc,
  0xf2, 0xfe, 0xb7, 0x1b, 0x4a, 0x7f, 0xed, 0x9b, 0x97, 0xfc, 0x29, 0x31,
  0x11, 0xef, 0x28, 0x0e, 0xfd, 0xcc, 0x44, 0xf4, 0xba, 0xf2, 0xec, 0x7f,
  0xcc, 0x2a, 0x02, 0x2e, 0xbd, 0xf0, 0x7f, 0x48, 0x0b, 0x8c, 0xd2, 0xef,
  0xf5, 0x7f, 0x02, 0x01, 0xd5, 0xf9, 0x1c, 0x87, 0x21, 0x06, 0x6c, 0xf8,
  0x7f, 0x17, 0xb0, 0xa6, 0xf0, 0xe7, 0xdf, 0xe6, 0x7f, 0x22, 0x10, 0xd4,
  0x55, 0x42, 0xf2, 0xc4, 0xcc, 0x0a, 0x81, 0x03, 0x0e, 0x5a, 0xe0, 0xda,
  0x11, 0x46, 0x3c, 0xf7, 0xf7, 0x81, 0x17, 0x0a, 0xb9, 0xcb, 0xa7, 0xf0,
  0xfb, 0x81, 0x42, 0xa0, 0xa4, 0xc9, 0xec, 0x05, 0xd3, 0x9c, 0x84, 0xce,
  0xf1, 0xfb, 0x01, 0x1d, 0x9a, 0xe5, 0x28, 0xe0, 0xea, 0xca, 0x7f, 0x21,
  0x22, 0x0b, 0x7f, 0x25, 0x17, 0x21, 0xdb, 0xf7, 0xc1, 0xf5, 0xa6, 0xa7,
  0x0b, 0xb1, 0x0f, 0x11, 0xc6, 0x05, 0x2b, 0xed, 0x0c, 0xe1, 0x81, 0xf5,
  0x4e, 0x7f, 0x2f, 0x13, 0x1c, 0xd6, 0x14, 0x56, 0x03, 0x28, 0x55, 0x23,
  0x60, 0xe6, 0xfb, 0x77, 0x54, 0xe8, 0x99, 0xb7, 0xf9, 0x81, 0x1f, 0x21,
  0x08, 0xf2, 0xbc, 0xf3, 0x17, 0x7f, 0x0d, 0xeb, 0x9e, 0xf3, 0x0e, 0x2b,
  0x81, 0x59, 0xfe, 0x2f, 0xb8, 0xd1, 0x72, 0x1b, 0xd1, 0x8c, 0x04, 0x04,
  0xee, 0x29, 0x73, 0x44, 0xc2, 0xbc, 0xcd, 0x6a, 0xd8, 0x46, 0xca, 0x81,
  0xe5, 0x51, 0x45, 0xa8, 0x67, 0x13, 0xdd, 0x81, 0xfc, 0x51, 0xa3, 0x09,
  0x5c, 0xd1, 0xd4, 0xf6, 0x3e, 0x01, 0xd7, 0x82, 0xcc, 0x0e, 0x7f, 0xe7,
  0xac, 0x59, 0x43, 0xd7, 0x63, 0x42, 0x9f, 0x41, 0xb0, 0x8b, 0x7f, 0x4c,
  0xaf, 0x7f, 0x22, 0xc2, 0x5b, 0xc2, 0xc1, 0x58, 0xfa, 0xfc, 0x57, 0x2e,
  0x81, 0xc6, 0x21, 0x1d, 0x1b, 0x05, 0x18, 0xc1, 0x10, 0x52, 0x1c, 0xb8,
  0x14, 0xb1, 0xf9, 0xe6, 0x7f, 0x2b, 0x28, 0xf4, 0xf3, 0xdf, 0xe6, 0xf4,
  0xf0, 0x21, 0x7f, 0x27, 0x17, 0x28, 0xfe, 0xc8, 0xfd, 0x4f, 0x02, 0x30,
  0xfc, 0xf5, 0xfe, 0x65, 0x16, 0x04, 0x19, 0xf9, 0xf1, 0x81, 0xfe, 0x03,
  0xb6, 0xe9, 0xff, 0xff, 0x04, 0x00, 0x00, 0x00, 0x80, 0x00, 0x00, 0x00,
  0x00, 0x00, 0x00, 0x00, 0x00, 0x00, 0x00, 0x00, 0x00, 0x00, 0x00, 0x00,
  0x00, 0x00, 0x00, 0x00, 0x00, 0x00, 0x00, 0x00, 0x00, 0x00, 0x00, 0x00,
  0x00, 0x00, 0x00, 0x00, 0x00, 0x00, 0x00, 0x00, 0x00, 0x00, 0x00, 0x00,
  0x00, 0x00, 0x00, 0x00, 0x00, 0x00, 0x00, 0x00, 0x00, 0x00, 0x00, 0x00,
  0x00, 0x00, 0x00, 0x00, 0x00, 0x00, 0x00, 0x00, 0x00, 0x00, 0x00, 0x00,
  0x00, 0x00, 0x00, 0x00, 0x00, 0x00, 0x00, 0x00, 0x00, 0x00, 0x00, 0x00,
  0x00, 0x00, 0x00, 0x00, 0x00, 0x00, 0x00, 0x00, 0x00, 0x00, 0x00, 0x00,
  0x00, 0x00, 0x00, 0x00, 0x00, 0x00, 0x00, 0x00, 0x00, 0x00, 0x00, 0x00,
  0x00, 0x00, 0x00, 0x00, 0x00, 0x00, 0x00, 0x00, 0x00, 0x00, 0x00, 0x00,
  0x00, 0x00, 0x00, 0x00, 0x00, 0x00, 0x00, 0x00, 0x00, 0x00, 0x00, 0x00,
  0x00, 0x00, 0x00, 0x00, 0x00, 0x00, 0x00, 0x00, 0x42, 0xea, 0xff, 0xff,
  0x04, 0x00, 0x00, 0x00, 0x20, 0x00, 0x00, 0x00, 0x1e, 0xbb, 0x2f, 0x0e,
  0x3b, 0x2d, 0x2c, 0xd1, 0x23, 0x48, 0x7f, 0xfa, 0xd9, 0xc0, 0x86, 0xe1,
  0x31, 0xc6, 0xcd, 0x8a, 0x32, 0x31, 0xc9, 0xae, 0x31, 0xd8, 0xbc, 0xc3,
  0xce, 0xb8, 0x80, 0x2e, 0x6e, 0xea, 0xff, 0xff, 0x04, 0x00, 0x00, 0x00,
  0x20, 0x00, 0x00, 0x00, 0xd1, 0xc3, 0xa9, 0xaf, 0xb2, 0xab, 0xad, 0xaf,
  0xc4, 0xa6, 0xc3, 0xbe, 0x0e, 0x3e, 0xea, 0xad, 0xa3, 0xcb, 0xc3, 0xe4,
  0xa7, 0xcf, 0xd5, 0x7f, 0xa6, 0xde, 0xb4, 0xa9, 0xd1, 0x79, 0xce, 0xb7,
  0x9a, 0xea, 0xff, 0xff, 0x04, 0x00, 0x00, 0x00, 0x20, 0x00, 0x00, 0x00,
  0x1e, 0x50, 0x32, 0x43, 0x13, 0x2e, 0x30, 0x2e, 0x1f, 0x06, 0x80, 0x45,
  0x64, 0x59, 0x51, 0x1a, 0x2e, 0x4b, 0x25, 0x51, 0x29, 0xef, 0x41, 0x68,
  0x23, 0x40, 0x3d, 0x2e, 0x50, 0x5c, 0x5a, 0x21, 0xc6, 0xea, 0xff, 0xff,
  0x04, 0x00, 0x00, 0x00, 0x00, 0x14, 0x00, 0x00, 0x2a, 0x1f, 0x02, 0x1d,
  0x18, 0x04, 0x04, 0xbe, 0x15, 0x28, 0x01, 0xf7, 0x32, 0x3e, 0x28, 0xbc,
  0x18, 0x18, 0xe0, 0xcd, 0x11, 0x27, 0x22, 0x20, 0x08, 0x17, 0xc5, 0xb6,
  0x1f, 0x32, 0x42, 0x01, 0x25, 0x05, 0xf1, 0x15, 0x13, 0x0b, 0xf8, 0xad,
  0x16, 0x08, 0x05, 0x07, 0x2f, 0x2e, 0x1e, 0xa5, 0x0e, 0xe6, 0xd7, 0xef,
  0x06, 0x1f, 0x3b, 0x29, 0xf6, 0x07, 0xdd, 0xcf, 0x11, 0x35, 0x2b, 0xef,
  0x0a, 0x1b, 0xf7, 0x0f, 0xf8, 0x07, 0xfa, 0xcd, 0x19, 0x2a, 0xff, 0xdb,
  0x2f, 0x30, 0x1c, 0xc0, 0xfc, 0xf8, 0xc0, 0xda, 0x11, 0x1a, 0x23, 0x1b,
  0xd5, 0x16, 0xdc, 0xbd, 0x15, 0x40, 0x46, 0x01, 0x1f, 0x16, 0x0d, 0x14,
  0xfa, 0xf5, 0xeb, 0x95, 0xfd, 0x25, 0x0c, 0xc6, 0x30, 0x4c, 0x34, 0xb9,
  0xd9, 0x15, 0xb4, 0xeb, 0x11, 0x1a, 0x37, 0x16, 0xfd, 0x0b, 0xc7, 0xce,
  0x1f, 0x29, 0x38, 0xfd, 0x07, 0x1b, 0xfd, 0x13, 0x08, 0xfb, 0xf1, 0xc7,
  0xf0, 0x05, 0x16, 0xec, 0x27, 0x59, 0x33, 0xc3, 0x11, 0x00, 0xa7, 0xc2,
  0x16, 0x0f, 0x40, 0x10, 0xf7, 0x23, 0xa7, 0xb6, 0x1f, 0x30, 0x4e, 0xeb,
  0x12, 0x2c, 0x1b, 0x0f, 0xe2, 0xf2, 0xef, 0xbb, 0xfb, 0xf2, 0xf4, 0xf2,
  0x05, 0x27, 0x1c, 0xd3, 0xed, 0x01, 0xc9, 0xe3, 0xf8, 0x1e, 0x46, 0x21,
  0xf7, 0x2e, 0xb1, 0xb8, 0x20, 0x4b, 0x2b, 0xfe, 0x14, 0x24, 0xf3, 0x19,
  0x05, 0xdd, 0xdc, 0xac, 0x15, 0xe7, 0x1e, 0xfe, 0x16, 0x32, 0x34, 0xbe,
  0x0d, 0xfd, 0xaf, 0xd0, 0xf5, 0x1d, 0x4c, 0x0e, 0xe4, 0x23, 0x99, 0xab,
  0x20, 0x1d, 0x25, 0x1a, 0x0c, 0x2d, 0xf9, 0x04, 0x18, 0xf1, 0xe4, 0xd2,
  0xf0, 0xf5, 0x30, 0x00, 0x22, 0x41, 0x2f, 0xc2, 0xfa, 0x0e, 0x8a, 0xe6,
  0x0d, 0x1d, 0x31, 0x27, 0xd2, 0x2d, 0xb6, 0xb7, 0x23, 0x34, 0x36, 0x10,
  0x19, 0x25, 0xfa, 0x07, 0xf9, 0xf2, 0x05, 0xa0, 0x06, 0x12, 0x21, 0xf0,
  0x0e, 0x2d, 0x3a, 0xa4, 0x07, 0x1e, 0x90, 0xc6, 0x0b, 0x11, 0x3b, 0x2c,
  0xdf, 0x20, 0xc0, 0xbf, 0x15, 0x13, 0x03, 0xf9, 0x28, 0x26, 0x03, 0x07,
  0xf8, 0xe8, 0xeb, 0xb5, 0xf4, 0x01, 0x2d, 0x0c, 0x2b, 0x3b, 0x33, 0xa3,
  0x11, 0x11, 0xa9, 0xd2, 0x1e, 0x1c, 0x24, 0x2c, 0xee, 0x1f, 0x88, 0xb3,
  0x18, 0x1a, 0x0c, 0x01, 0x20, 0x01, 0xf5, 0x13, 0x08, 0xf0, 0x00, 0xaf,
  0xf8, 0x28, 0x34, 0xec, 0x18, 0x38, 0x33, 0xb0, 0xf1, 0x04, 0xa0, 0xb2,
  0x0d, 0x24, 0x2d, 0x1d, 0xe2, 0x1c, 0x9f, 0x8e, 0x1a, 0x20, 0x2c, 0x0d,
  0x0c, 0x14, 0x01, 0x18, 0x0e, 0x01, 0xf1, 0xb8, 0xfd, 0x32, 0x19, 0xe4,
  0x27, 0x32, 0x3a, 0x98, 0x1f, 0x0f, 0xb9, 0xd4, 0x1d, 0x26, 0x30, 0x2d,
  0xe8, 0x19, 0x8d, 0x94, 0x10, 0x3f, 0x1e, 0x09, 0x32, 0x14, 0x0e, 0xfd,
  0x06, 0x0f, 0x03, 0xd0, 0xec, 0x06, 0x25, 0xe4, 0x28, 0x27, 0xfd, 0xd5,
  0x16, 0x09, 0xc0, 0xa5, 0x0c, 0x19, 0x16, 0x0c, 0xeb, 0x21, 0xa5, 0x93,
  0x0b, 0x4a, 0x19, 0x0f, 0x18, 0x30, 0xfe, 0x20, 0xf9, 0xfe, 0xed, 0xa2,
  0xf0, 0x17, 0x11, 0x0b, 0x37, 0x19, 0x0e, 0xb3, 0x26, 0x05, 0xa2, 0xc6,
  0x1d, 0x12, 0x30, 0x2a, 0xee, 0x15, 0xa1, 0x8d, 0x0f, 0x2f, 0x17, 0xfc,
  0x0f, 0x13, 0x28, 0x09, 0x10, 0x1e, 0xea, 0xc6, 0xfa, 0x23, 0x15, 0xfb,
  0x27, 0x1d, 0x19, 0xb3, 0xf7, 0xf6, 0xa1, 0xc1, 0x1b, 0x15, 0x29, 0x1a,
  0xf1, 0x12, 0x99, 0xac, 0x21, 0x34, 0x2e, 0xff, 0x36, 0x00, 0x06, 0x10,
  0x05, 0x29, 0xff, 0xa0, 0xd8, 0x2c, 0x2d, 0xfa, 0x25, 0x19, 0x0c, 0xa0,
  0x07, 0x00, 0xb7, 0xae, 0x0a, 0x29, 0x22, 0x22, 0x08, 0x25, 0x94, 0x93,
  0x17, 0x26, 0x05, 0xfe, 0x1d, 0x00, 0x17, 0x07, 0xfd, 0xe1, 0xf5, 0xb0,
  0x0b, 0x03, 0x04, 0x01, 0x23, 0x20, 0x04, 0xb8, 0xf7, 0xfc, 0x81, 0x96,
  0x0a, 0x15, 0x2e, 0x0d, 0xed, 0x32, 0xb8, 0xa0, 0x24, 0x2c, 0x15, 0x04,
  0x30, 0x0a, 0x10, 0xf5, 0x17, 0xe3, 0xf4, 0xa9, 0xf9, 0x27, 0x24, 0xfd,
  0x23, 0x31, 0x0e, 0xa4, 0x0f, 0x04, 0xa8, 0xc6, 0x1a, 0x14, 0x1c, 0x0e,
  0xeb, 0x17, 0xbc, 0xab, 0x2e, 0x1b, 0x06, 0x03, 0x22, 0xf4, 0x29, 0x04,
  0x0f, 0xed, 0xee, 0xb5, 0x0f, 0x0c, 0x27, 0xfe, 0x2b, 0x27, 0x1a, 0x9f,
  0xff, 0xec, 0x99, 0xa4, 0x0a, 0x11, 0x17, 0x26, 0xf4, 0xfc, 0xa5, 0xae,
  0x25, 0x2e, 0x0d, 0x03, 0x38, 0x0c, 0x35, 0x0c, 0x0c, 0x04, 0xe2, 0xbc,
  0xfc, 0x13, 0x17, 0xf2, 0x37, 0x1f, 0x03, 0xac, 0x04, 0x00, 0x9f, 0xa6,
  0x1a, 0x16, 0x2f, 0x13, 0x07, 0x1d, 0xb4, 0x8c, 0x2b, 0x3b, 0x01, 0x14,
  0x34, 0x20, 0x20, 0x08, 0x04, 0x08, 0xf7, 0xc8, 0x16, 0x10, 0x13, 0x0d,
  0x1e, 0x10, 0x01, 0x84, 0x08, 0xf6, 0xa3, 0x83, 0x0f, 0x22, 0x19, 0x28,
  0xf4, 0x0a, 0xa0, 0x8e, 0x17, 0x36, 0x15, 0x00, 0x0f, 0x18, 0x14, 0x10,
  0xfb, 0x06, 0x17, 0xc1, 0xf9, 0x03, 0x1a, 0xfc, 0x11, 0x24, 0x0c, 0x95,
  0xfd, 0x07, 0xa6, 0x8a, 0x18, 0x2a, 0x0a, 0x19, 0x0e, 0x29, 0xb4, 0x9d,
  0x17, 0x3d, 0xfa, 0x05, 0x1f, 0x07, 0x18, 0xfa, 0x1b, 0xfb, 0xf2, 0xa6,
  0xfe, 0x0c, 0x23, 0x01, 0x2d, 0x2c, 0x0a, 0x9c, 0x0e, 0xea, 0x93, 0xa1,
  0x14, 0x0f, 0x39, 0x18, 0xf9, 0x1a, 0xb4, 0xb3, 0x17, 0x2f, 0xfa, 0x0e,
  0x07, 0x17, 0x34, 0x05, 0x19, 0x08, 0xf2, 0xad, 0xf2, 0xff, 0x3e, 0xfb,
  0x22, 0x33, 0x05, 0xa9, 0x02, 0x14, 0x9d, 0x85, 0x0f, 0x11, 0x2c, 0x38,
  0x09, 0x32, 0xa9, 0xa9, 0x0e, 0x23, 0xf5, 0x00, 0x09, 0x06, 0x07, 0x0a,
  0x00, 0xe5, 0x12, 0xb2, 0x09, 0xf2, 0x15, 0x0b, 0x1d, 0x17, 0x16, 0xb8,
  0x03, 0xf2, 0x88, 0x88, 0x15, 0x1c, 0x15, 0x33, 0x01, 0x46, 0xc1, 0x9a,
  0x2c, 0x1b, 0x03, 0x09, 0x28, 0x0c, 0x1d, 0x01, 0x05, 0x15, 0xe1, 0xb0,
  0xf8, 0x01, 0x14, 0x02, 0x27, 0x0d, 0x38, 0x99, 0x0b, 0x02, 0xa5, 0x9e,
  0x2c, 0x21, 0x24, 0x1c, 0x02, 0x3f, 0xc4, 0x9a, 0x18, 0x4c, 0xf2, 0x10,
  0x14, 0x1a, 0x1b, 0x0f, 0x2f, 0xfa, 0xec, 0xc5, 0xde, 0xff, 0x3b, 0x18,
  0x32, 0x22, 0x0e, 0x92, 0x22, 0xf3, 0xb2, 0x8c, 0x19, 0x18, 0x2e, 0x24,
  0x0e, 0x39, 0xbe, 0xab, 0x18, 0x50, 0x0c, 0x04, 0x17, 0x24, 0x14, 0x04,
  0x08, 0xe2, 0xdd, 0xcc, 0xec, 0x07, 0x3b, 0x1c, 0x19, 0x1e, 0x15, 0x9b,
  0x34, 0x00, 0x99, 0x93, 0x0b, 0x18, 0x12, 0x26, 0xf9, 0x38, 0xbf, 0xa8,
  0x1c, 0x46, 0xf3, 0x02, 0x06, 0x1c, 0x0f, 0x14, 0xf4, 0x10, 0x05, 0xc2,
  0xfd, 0x09, 0x26, 0xfe, 0x09, 0x0a, 0x14, 0xa6, 0x0a, 0xfb, 0xa6, 0xa3,
  0x0c, 0x01, 0x1f, 0x22, 0x0a, 0x43, 0xb0, 0xaa, 0x20, 0x37, 0x14, 0xfa,
  0x1f, 0x1f, 0x10, 0x1d, 0x12, 0xfb, 0x13, 0xac, 0x02, 0x06, 0x26, 0x28,
  0x1e, 0x0a, 0x36, 0x91, 0x0f, 0xf2, 0xa7, 0xbd, 0x07, 0x0e, 0x39, 0x0b,
  0xfd, 0x2e, 0xac, 0x9d, 0x0e, 0x3b, 0x16, 0x0d, 0x0f, 0x10, 0x28, 0x0a,
  0x05, 0xd8, 0x1b, 0xa7, 0xfc, 0xfe, 0x21, 0x08, 0x09, 0x13, 0x2e, 0xb9,
  0x11, 0xdc, 0xb3, 0xa3, 0x0d, 0x14, 0x0d, 0x0f, 0xf5, 0x41, 0xb9, 0xbf,
  0x1f, 0x4a, 0x0d, 0x12, 0x23, 0x13, 0x35, 0x06, 0x20, 0xe3, 0xff, 0xc2,
  0xe7, 0x09, 0x24, 0x33, 0x17, 0x1c, 0x15, 0xaf, 0x06, 0xe9, 0xac, 0xc9,
  0x15, 0x00, 0x12, 0x1b, 0x05, 0x3b, 0x9f, 0xa7, 0x18, 0x45, 0xf4, 0x07,
  0x10, 0x15, 0x11, 0x15, 0x0d, 0xf8, 0xf8, 0xbb, 0xf4, 0xff, 0x1f, 0x0a,
  0x12, 0x11, 0x26, 0x9b, 0x04, 0xfa, 0xa2, 0xd4, 0x30, 0x16, 0x28, 0x14,
  0x08, 0x30, 0xa0, 0xa7, 0xfc, 0x45, 0x01, 0x16, 0x18, 0x1d, 0x29, 0x01,
  0x05, 0x05, 0x0c, 0xc1, 0x08, 0x09, 0x25, 0x2c, 0x04, 0x2b, 0x0e, 0x96,
  0x00, 0x06, 0xb5, 0xe9, 0x21, 0x1c, 0x23, 0x20, 0x0e, 0x31, 0xc1, 0xcd,
  0x15, 0x45, 0x11, 0x04, 0x14, 0x33, 0x12, 0x00, 0x0d, 0xf8, 0xe4, 0x96,
  0xef, 0xe8, 0x0b, 0x16, 0x02, 0x22, 0x13, 0xa2, 0xfe, 0xf0, 0xae, 0xc7,
  0x21, 0x10, 0x1c, 0x29, 0xfb, 0x2f, 0xd2, 0xbb, 0x16, 0x51, 0xe3, 0xff,
  0x14, 0x0e, 0x1a, 0x03, 0x0e, 0xea, 0xfa, 0xaf, 0xed, 0xf8, 0x25, 0x01,
  0x15, 0x18, 0x0f, 0xab, 0x08, 0xf5, 0xab, 0xcd, 0x0a, 0xfe, 0x11, 0x24,
  0xfc, 0x26, 0xbb, 0xcd, 0x17, 0x35, 0x08, 0x0e, 0x19, 0x0f, 0x1f, 0xf8,
  0xff, 0xe6, 0x03, 0xbc, 0x0f, 0xd7, 0x02, 0xfb, 0x18, 0x13, 0x1a, 0xc9,
  0xfa, 0xfb, 0xc0, 0xe2, 0x15, 0x11, 0x17, 0x28, 0xfd, 0x0b, 0xd4, 0xb4,
  0x26, 0x34, 0x22, 0x19, 0x1b, 0x1c, 0x29, 0xe5, 0x29, 0xf3, 0xfc, 0xd4,
  0xdf, 0xef, 0x20, 0x02, 0x1a, 0x0c, 0x29, 0xbb, 0xe5, 0xe8, 0xb2, 0xd3,
  0x02, 0xfd, 0x09, 0x1b, 0xe6, 0x21, 0xb5, 0xb6, 0x06, 0x45, 0xf2, 0x08,
  0x21, 0x13, 0x2a, 0xf7, 0x17, 0xfb, 0xfe, 0xb9, 0x05, 0xd5, 0xfd, 0x09,
  0x01, 0x19, 0x05, 0xa6, 0x0b, 0xfd, 0xac, 0xfc, 0xff, 0xed, 0x24, 0x24,
  0xe7, 0x1f, 0xb3, 0xbf, 0xf1, 0x31, 0x18, 0x06, 0x2a, 0x0f, 0x39, 0x09,
  0x21, 0xfc, 0xfa, 0xcd, 0x0d, 0xe4, 0x2e, 0x11, 0x1a, 0x1d, 0x1f, 0xa4,
  0xf3, 0x1d, 0xca, 0xcd, 0x07, 0xfd, 0x35, 0x38, 0x00, 0x0f, 0xa0, 0xae,
  0x28, 0x2b, 0xf3, 0x26, 0x4e, 0xb1, 0x35, 0x18, 0x2b, 0x00, 0x0d, 0xff,
  0x43, 0x37, 0x03, 0xce, 0x0a, 0x9e, 0x15, 0x19, 0xe0, 0x10, 0x28, 0x58,
  0x01, 0x7c, 0xd5, 0x31, 0xcf, 0xed, 0x50, 0x42, 0x21, 0xbc, 0x02, 0x23,
  0x44, 0xd5, 0x1e, 0xe8, 0x2c, 0x21, 0x1e, 0x1a, 0x39, 0x21, 0xfe, 0xb6,
  0x09, 0xc6, 0x03, 0x38, 0xe0, 0x0b, 0x0b, 0x4d, 0x11, 0x48, 0xc3, 0x5a,
  0xd2, 0x08, 0x3f, 0x2e, 0x13, 0xc7, 0x09, 0x14, 0x2f, 0xda, 0xf1, 0x12,
  0x08, 0x25, 0x02, 0x25, 0x50, 0x02, 0x09, 0xf3, 0x02, 0xa8, 0x13, 0x22,
  0xf2, 0xed, 0x0f, 0x31, 0x0d, 0x38, 0xaf, 0x2b, 0xd3, 0x00, 0x21, 0x10,
  0x1d, 0xd6, 0xe4, 0x19, 0x1a, 0xd8, 0x0b, 0x09, 0x22, 0x11, 0x08, 0x3d,
  0x2e, 0x10, 0xcb, 0xf7, 0xe8, 0xa7, 0xe7, 0x02, 0xf7, 0x0b, 0x23, 0x2c,
  0x13, 0x3a, 0xc7, 0x38, 0xdf, 0xec, 0x1b, 0x2e, 0x28, 0xcc, 0x33, 0x28,
  0x3f, 0xb4, 0x1d, 0xfc, 0x14, 0x19, 0x13, 0x22, 0x47, 0x1a, 0x07, 0xf4,
  0x0d, 0x9e, 0xd4, 0x13, 0xd9, 0xf5, 0x12, 0x4d, 0xf3, 0x2e, 0xe2, 0x28,
  0xda, 0xdb, 0x24, 0xe8, 0x1b, 0xd3, 0xe2, 0x21, 0x1b, 0xbf, 0x12, 0x05,
  0x1c, 0x1e, 0x32, 0x32, 0x44, 0xf9, 0x0e, 0xf4, 0xf6, 0xa9, 0xe0, 0x0f,
  0xc1, 0xdc, 0x3b, 0x43, 0xf8, 0x47, 0xc3, 0x29, 0xd0, 0xbd, 0x2e, 0x15,
  0x22, 0xad, 0xe8, 0x04, 0x17, 0xe7, 0x1d, 0x17, 0x12, 0x2e, 0x0e, 0x43,
  0x29, 0x37, 0xce, 0xbb, 0x00, 0xa8, 0xe1, 0xe8, 0x03, 0xe9, 0x05, 0x1e,
  0xfb, 0x54, 0xb1, 0x38, 0xda, 0xdc, 0x30, 0x33, 0x3d, 0xd7, 0xf9, 0x23,
  0x32, 0xeb, 0x20, 0xf7, 0x27, 0x50, 0x20, 0x3e, 0x58, 0x18, 0x12, 0xc7,
  0xff, 0x89, 0xbd, 0x04, 0xdd, 0x07, 0x4d, 0x30, 0x14, 0x52, 0xe9, 0x2c,
  0xfc, 0xd1, 0x1e, 0x0b, 0x29, 0xd3, 0xed, 0x28, 0x3f, 0xf4, 0x29, 0x19,
  0x09, 0x1e, 0x2c, 0x3e, 0x58, 0x20, 0xd8, 0xd1, 0x12, 0xad, 0x17, 0x07,
  0xb9, 0x08, 0x3d, 0x2a, 0x21, 0x3a, 0xd6, 0x20, 0xd5, 0xf6, 0x2b, 0x17,
  0x06, 0xd0, 0xe6, 0x28, 0x33, 0xd0, 0x17, 0x00, 0x19, 0x04, 0x3f, 0x28,
  0x39, 0xff, 0xd4, 0xe1, 0xef, 0xa0, 0xc7, 0xff, 0xd5, 0xf0, 0x1c, 0x2e,
  0xfb, 0x5c, 0xae, 0x15, 0xe2, 0xea, 0x3f, 0x3d, 0x16, 0xe8, 0x16, 0x26,
  0xf8, 0xf4, 0x1b, 0x05, 0x34, 0x34, 0x0d, 0x07, 0x56, 0x07, 0xe4, 0xcf,
  0xf7, 0xaa, 0x2c, 0xf7, 0xdb, 0xf6, 0x45, 0x20, 0x1a, 0x42, 0xa2, 0x26,
  0x01, 0xb7, 0x0a, 0x1e, 0x27, 0xe5, 0xe9, 0x34, 0x1d, 0xee, 0x2e, 0x04,
  0x27, 0x13, 0x2a, 0x19, 0x49, 0xe8, 0xf5, 0xf4, 0x06, 0xad, 0xf0, 0x27,
  0x0e, 0xf6, 0x34, 0x2d, 0x05, 0x42, 0xc1, 0x2c, 0xeb, 0xdf, 0x23, 0xf6,
  0x1a, 0xdb, 0x05, 0x36, 0x40, 0xe5, 0x47, 0x25, 0x13, 0x26, 0x35, 0x16,
  0x5d, 0x18, 0x03, 0xe1, 0x0a, 0xb2, 0x04, 0xdf, 0xcd, 0xe7, 0x30, 0x16,
  0x02, 0x61, 0xdc, 0x28, 0xcb, 0xe4, 0x09, 0x2a, 0x3d, 0xd0, 0x07, 0x2d,
  0x34, 0xd3, 0x25, 0x14, 0x27, 0x1f, 0x23, 0x3c, 0x53, 0x1f, 0xf6, 0xe0,
  0x19, 0xb2, 0x1d, 0x1d, 0xe1, 0xe5, 0x37, 0x1f, 0x13, 0x62, 0xc3, 0xf9,
  0xe5, 0xe7, 0x03, 0x23, 0x12, 0xbd, 0xf2, 0x31, 0x46, 0xd2, 0x18, 0x26,
  0x33, 0x3a, 0x2b, 0x0d, 0x5b, 0xe4, 0x18, 0xcb, 0xd2, 0xa7, 0xf3, 0xf6,
  0xe6, 0xd5, 0x26, 0x3a, 0x1c, 0x49, 0xcf, 0x40, 0xc3, 0xd6, 0x2b, 0xfa,
  0x10, 0xa9, 0x0e, 0x23, 0x2e, 0xee, 0x4c, 0x2d, 0x4b, 0x02, 0x32, 0x3b,
  0x56, 0xfa, 0xf5, 0xda, 0xfe, 0xba, 0xe6, 0xd8, 0xe5, 0xe6, 0x12, 0x17,
  0x38, 0x62, 0xc1, 0x2c, 0xd4, 0xe5, 0x05, 0xf3, 0x22, 0xd8, 0x04, 0x2e,
  0x6f, 0xe2, 0x00, 0x1f, 0x16, 0x15, 0x34, 0x14, 0x52, 0x00, 0x02, 0xeb,
  0x0d, 0xa5, 0xd6, 0xf9, 0xe9, 0x15, 0x1b, 0x14, 0x22, 0x46, 0x97, 0x2d,
  0xff, 0x03, 0x0b, 0x23, 0x18, 0xfe, 0x10, 0x25, 0x56, 0xf3, 0x1e, 0x14,
  0x22, 0x1f, 0xfa, 0x2c, 0x6a, 0x17, 0xe7, 0xf6, 0xfd, 0xa2, 0xe8, 0xfb,
  0xee, 0xe8, 0x0b, 0xdf, 0x1d, 0x51, 0xab, 0x13, 0xfc, 0xf0, 0x00, 0xf4,
  0xfa, 0xf8, 0x10, 0x3b, 0x40, 0xe1, 0x3b, 0x28, 0x1c, 0x0c, 0x2d, 0x3a,
  0x58, 0x28, 0xee, 0xe5, 0xde, 0xa7, 0xfc, 0x09, 0xe3, 0x06, 0x29, 0x2c,
  0x0d, 0x61, 0xab, 0x26, 0xe8, 0xd1, 0xea, 0xf4, 0x13, 0xed, 0x10, 0x39,
  0x49, 0xe4, 0xec, 0xe8, 0x04, 0x34, 0x1b, 0x42, 0x2b, 0x08, 0xf3, 0xe1,
  0xec, 0xb8, 0xec, 0xf2, 0xe8, 0xe7, 0xf6, 0x0a, 0xf3, 0x5c, 0xb6, 0x15,
  0x17, 0xc6, 0xf6, 0x05, 0x3a, 0xdd, 0x0b, 0x03, 0x2a, 0xa2, 0x23, 0x07,
  0x2d, 0x3d, 0x3c, 0x22, 0x36, 0x0a, 0xcf, 0xf5, 0xfc, 0xbf, 0xf5, 0x00,
  0xe6, 0x18, 0xfe, 0x11, 0x16, 0x51, 0xb6, 0x3c, 0x16, 0xe2, 0x0f, 0x07,
  0x2e, 0xe2, 0xf6, 0x14, 0x20, 0xf7, 0x01, 0x0f, 0x33, 0x13, 0x0d, 0xef,
  0x59, 0x3a, 0xc8, 0xf9, 0xe7, 0xa7, 0xff, 0x03, 0xe7, 0xe5, 0x0a, 0xf9,
  0x19, 0x4f, 0xb6, 0xf9, 0xee, 0xeb, 0xfe, 0xe2, 0x0c, 0xc9, 0xee, 0x2f,
  0x48, 0xf9, 0x29, 0xfb, 0x21, 0x44, 0x37, 0x30, 0x4d, 0x1f, 0xf5, 0xdf,
  0x0e, 0x81, 0xdb, 0x0f, 0xd6, 0x0c, 0x06, 0x27, 0x26, 0x38, 0xa3, 0x1d,
  0xdc, 0xdc, 0x02, 0x27, 0x31, 0xc8, 0xf8, 0x26, 0x40, 0xd5, 0x1f, 0x1f,
  0x13, 0x30, 0x24, 0x2d, 0x55, 0x19, 0x09, 0xec, 0xee, 0x86, 0xed, 0x0f,
  0xe6, 0x0b, 0x1f, 0x28, 0x1b, 0x32, 0xab, 0x1f, 0xf3, 0xcb, 0x42, 0x31,
  0x36, 0xb3, 0xe4, 0x15, 0x25, 0xe0, 0x38, 0x1e, 0x4f, 0x0d, 0x1e, 0x4f,
  0x6d, 0x03, 0xfd, 0xd0, 0xf5, 0xba, 0x04, 0x16, 0xfa, 0xfc, 0x13, 0x21,
  0x09, 0x44, 0x91, 0x0f, 0xe9, 0x8e, 0x11, 0x09, 0x28, 0xb9, 0xe6, 0x1c,
  0x39, 0xee, 0x27, 0x22, 0x37, 0x14, 0x45, 0xfc, 0x69, 0xfb, 0x12, 0xbe,
  0xef, 0xb7, 0xf4, 0x16, 0xec, 0xec, 0x07, 0x14, 0xf4, 0x4d, 0x92, 0xf3,
  0xd1, 0xd4, 0xf0, 0xea, 0x2c, 0xbc, 0xe3, 0x14, 0x35, 0xd3, 0x42, 0x0b,
  0x21, 0x27, 0x08, 0x1c, 0x5a, 0x21, 0x1a, 0xf0, 0x07, 0xb7, 0x02, 0x11,
  0xea, 0xeb, 0x30, 0x32, 0x19, 0x40, 0x8d, 0xf0, 0x08, 0xe3, 0x1c, 0x10,
  0x1a, 0xc1, 0xf2, 0x26, 0x33, 0xc1, 0x1a, 0x11, 0x2b, 0x1e, 0x31, 0x0e,
  0x53, 0x06, 0xe9, 0xc6, 0xea, 0x8f, 0x03, 0x17, 0xee, 0xf6, 0x0f, 0x55,
  0x1d, 0x64, 0xab, 0x14, 0xd2, 0xd8, 0x0c, 0xed, 0x29, 0xb4, 0x29, 0x23,
  0x49, 0xd7, 0x24, 0x1e, 0x37, 0x3f, 0x2d, 0x25, 0x3c, 0x1a, 0x06, 0xd1,
  0x00, 0xb8, 0x22, 0x26, 0xcd, 0xe1, 0x37, 0x36, 0x22, 0x56, 0xb1, 0x15,
  0xdc, 0xc2, 0xec, 0x03, 0x17, 0xc8, 0xf1, 0x16, 0x39, 0xdc, 0x32, 0x16,
  0x31, 0x21, 0x10, 0x45, 0x12, 0x0e, 0xdd, 0xc1, 0x13, 0xaa, 0x06, 0x15,
  0xd2, 0xdf, 0x14, 0x37, 0x1e, 0x3a, 0x9e, 0x11, 0xc8, 0xbc, 0x09, 0x37,
  0x28, 0xd4, 0xdc, 0x21, 0x05, 0xb5, 0xd6, 0x1d, 0x2a, 0x48, 0x19, 0x28,
  0x32, 0x03, 0x08, 0xcb, 0xf6, 0xd0, 0x23, 0x22, 0xb6, 0xe3, 0x03, 0x2c,
  0x17, 0x35, 0xc3, 0x16, 0xcc, 0xc1, 0x22, 0x25, 0x22, 0xa6, 0xf5, 0x1a,
  0x32, 0xe4, 0x09, 0x18, 0x09, 0x18, 0x17, 0x3b, 0x43, 0x08, 0x02, 0xd4,
  0xed, 0xd8, 0x1c, 0x25, 0xdb, 0xed, 0x14, 0x27, 0x3b, 0x39, 0xd0, 0x15,
  0xa3, 0xdf, 0x0c, 0x0a, 0x24, 0xb8, 0x16, 0x2e, 0x1e, 0xfc, 0x0a, 0xdb,
  0x1b, 0x1b, 0x16, 0x32, 0x3a, 0x22, 0x04, 0xb9, 0x01, 0xdc, 0x13, 0x32,
  0xd7, 0x03, 0x25, 0x49, 0x16, 0x4d, 0xb8, 0x0a, 0xc9, 0x0b, 0x1f, 0x12,
  0x27, 0xae, 0xd9, 0x02, 0x49, 0xfb, 0x17, 0x0d, 0x2c, 0x36, 0x1a, 0x49,
  0x3f, 0x05, 0xf0, 0xc5, 0x07, 0xda, 0x2f, 0x4b, 0x1b, 0xf7, 0x31, 0x4c,
  0x06, 0x45, 0xa9, 0x11, 0xb1, 0xfd, 0x17, 0x25, 0x3f, 0xa3, 0xfc, 0x23,
  0x1e, 0xea, 0x2e, 0x0f, 0x2d, 0xf8, 0x3b, 0x64, 0x62, 0x53, 0xf9, 0xc2,
  0x0c, 0xd3, 0xf7, 0x4a, 0x04, 0xfa, 0x32, 0x3e, 0xec, 0x54, 0xe8, 0xee,
  0xc4, 0x17, 0x03, 0x3a, 0x31, 0x96, 0x27, 0x1e, 0x46, 0xfa, 0xfe, 0xd4,
  0x25, 0x1b, 0x15, 0x2f, 0x6f, 0x09, 0xee, 0xe6, 0xf1, 0xa1, 0x10, 0x13,
  0xeb, 0x00, 0x3b, 0x40, 0x24, 0x53, 0xc1, 0x03, 0xbf, 0xda, 0x39, 0x17,
  0x00, 0x9f, 0xfa, 0x2a, 0x48, 0x03, 0x33, 0x03, 0x0d, 0x25, 0x36, 0x3a,
  0x3a, 0x40, 0xf1, 0xc2, 0xea, 0xcc, 0xe5, 0x07, 0xda, 0x08, 0x36, 0x2f,
  0xfc, 0x58, 0xbd, 0x0b, 0xaa, 0xf9, 0x34, 0x15, 0x01, 0xcd, 0x1a, 0x1a,
  0x4d, 0xeb, 0xed, 0x03, 0x32, 0x0e, 0x21, 0x3b, 0x4b, 0x18, 0x0f, 0xe4,
  0x05, 0xbe, 0x18, 0x0d, 0xe0, 0x21, 0x43, 0x32, 0x19, 0x43, 0xd3, 0xe8,
  0xe2, 0xd8, 0x1a, 0x38, 0x49, 0xc0, 0xf3, 0x04, 0x39, 0xd0, 0x03, 0xfa,
  0x19, 0xfd, 0x0f, 0x4f, 0x56, 0x2e, 0x06, 0xc8, 0x08, 0xc4, 0x12, 0xf3,
  0xdc, 0xfe, 0x3c, 0x2d, 0x1a, 0x5e, 0xc8, 0x14, 0xa7, 0xeb, 0x0c, 0x24,
  0x34, 0xc2, 0xc7, 0xf9, 0x39, 0xc6, 0x1e, 0x07, 0x12, 0x06, 0x23, 0x39,
  0x4e, 0x0e, 0xfa, 0xeb, 0x11, 0xf0, 0x1b, 0x2e, 0xe5, 0x1d, 0x44, 0x19,
  0xf5, 0x78, 0xe1, 0x38, 0xe4, 0xf1, 0x17, 0xe6, 0x48, 0xb7, 0xce, 0x17,
  0xc2, 0xfb, 0x11, 0xfe, 0x16, 0x11, 0x1b, 0x13, 0xfc, 0xdc, 0x2f, 0x43,
  0xa1, 0xe0, 0xb9, 0xfb, 0xfa, 0xf8, 0x14, 0x12, 0x0a, 0xd1, 0xe7, 0xa6,
  0x17, 0x11, 0x12, 0x0e, 0xfc, 0xfa, 0x14, 0x08, 0xbe, 0x0e, 0xef, 0xf9,
  0x06, 0x0b, 0x20, 0x26, 0x0f, 0xdb, 0xf9, 0x34, 0xae, 0xdc, 0xb4, 0xfc,
  0x0c, 0xe9, 0x08, 0x14, 0x11, 0xe2, 0xe0, 0xa4, 0x39, 0x11, 0x10, 0x0f,
  0xfd, 0xe6, 0x17, 0x14, 0xcd, 0xee, 0xf7, 0x00, 0xfe, 0x24, 0x0f, 0x16,
  0x1d, 0xd9, 0x0d, 0x41, 0xb8, 0xea, 0xb5, 0x0e, 0x0a, 0xdb, 0xfb, 0x1d,
  0x0a, 0xd0, 0xe4, 0xac, 0x11, 0xfd, 0x14, 0x1c, 0x0c, 0xfa, 0xec, 0x27,
  0xcc, 0x04, 0x0e, 0xfd, 0x20, 0x17, 0xfa, 0x1a, 0x05, 0xe5, 0x07, 0x36,
  0xa5, 0xe0, 0xbb, 0x04, 0x1d, 0xde, 0xfd, 0x20, 0x0b, 0xe5, 0xe4, 0xab,
  0x22, 0x07, 0x0a, 0x11, 0x01, 0xf2, 0xf8, 0x1c, 0xc8, 0x08, 0x0b, 0xec,
  0x1d, 0x11, 0x12, 0x0f, 0x09, 0xee, 0x18, 0x31, 0x9f, 0xda, 0xbd, 0xf5,
  0x0f, 0xdb, 0x09, 0x0e, 0x0d, 0xe2, 0xf0, 0x9e, 0x1b, 0x16, 0x14, 0x08,
  0xf0, 0xd5, 0xee, 0x17, 0xcf, 0x0f, 0xf7, 0x08, 0x11, 0x12, 0x0a, 0x18,
  0x11, 0xf4, 0x14, 0x2e, 0xba, 0xe8, 0xbe, 0x04, 0x1f, 0xcf, 0xfe, 0x17,
  0x08, 0xe0, 0xd4, 0x99, 0x1d, 0x0a, 0x05, 0x04, 0xf4, 0xf1, 0x14, 0x12,
  0xc1, 0x25, 0xfb, 0x0c, 0x06, 0x23, 0x0d, 0x0a, 0x0a, 0x02, 0x22, 0x36,
  0xc3, 0xe5, 0xc5, 0x07, 0x24, 0xd9, 0x0d, 0x08, 0x1c, 0xe4, 0xf5, 0x9d,
  0x24, 0x07, 0x03, 0x06, 0x04, 0xeb, 0x12, 0x14, 0xdc, 0x18, 0x00, 0xff,
  0x19, 0x25, 0xfe, 0x20, 0xfd, 0xe5, 0x11, 0x3c, 0xb4, 0xeb, 0xc1, 0x03,
  0x2f, 0xc8, 0x1a, 0x17, 0x0d, 0xe8, 0xeb, 0xb7, 0x29, 0x04, 0xfa, 0x15,
  0xfd, 0xe5, 0x08, 0x03, 0xc3, 0x23, 0x0a, 0x0e, 0x02, 0x01, 0x0c, 0x0c,
  0xfb, 0xeb, 0x18, 0x21, 0xb4, 0xe8, 0xc4, 0x04, 0x1a, 0xe8, 0x09, 0x08,
  0x11, 0xcc, 0xd6, 0x9c, 0x23, 0xfa, 0x06, 0x09, 0x0b, 0xda, 0x0a, 0x0e,
  0xd5, 0x27, 0xff, 0x0a, 0x04, 0x0e, 0x0e, 0x0e, 0xfd, 0xd5, 0x0e, 0x37,
  0xb4, 0xef, 0xca, 0x10, 0x26, 0xdb, 0x0c, 0x16, 0x04, 0xd1, 0xcf, 0x9d,
  0x1d, 0x10, 0x0b, 0x17, 0xff, 0xdc, 0x15, 0x15, 0xb7, 0x11, 0xff, 0x0f,
  0x10, 0x08, 0x0e, 0xff, 0xf9, 0xd9, 0x07, 0x29, 0xa8, 0xfb, 0xdd, 0x03,
  0x13, 0xc8, 0x11, 0x0b, 0xfc, 0xcd, 0xf4, 0x81, 0x20, 0x10, 0x0c, 0x13,
  0x03, 0xf0, 0x0c, 0x16, 0xc0, 0x17, 0xf1, 0x12, 0x0b, 0x11, 0x0e, 0x0d,
  0xfd, 0xd7, 0x09, 0x33, 0x95, 0xf6, 0xcf, 0x0c, 0x18, 0xd8, 0x09, 0x11,
  0x05, 0xd8, 0xf2, 0x8a, 0x18, 0x04, 0x07, 0x12, 0x06, 0xe3, 0x07, 0x20,
  0xb2, 0x27, 0xee, 0x10, 0x07, 0x24, 0x17, 0x12, 0x13, 0xd6, 0x12, 0x23,
  0xaa, 0x02, 0xce, 0xfb, 0x2b, 0xd1, 0x0c, 0x01, 0x02, 0xcc, 0xf6, 0x92,
  0x1c, 0x1a, 0x0f, 0x11, 0x08, 0xfb, 0x15, 0x25, 0xc1, 0x13, 0xfd, 0x26,
  0x12, 0x07, 0x07, 0x09, 0xfb, 0xd4, 0x08, 0x32, 0xb2, 0xf9, 0xdd, 0x0a,
  0x04, 0xdf, 0x12, 0x18, 0x0c, 0xd5, 0xe1, 0xab, 0x2a, 0x29, 0x05, 0x14,
  0xf9, 0xfd, 0x05, 0x09, 0xbf, 0x10, 0xfa, 0x12, 0x09, 0x1c, 0x11, 0x2a,
  0xfe, 0xd9, 0x04, 0x16, 0xbd, 0xf6, 0xfe, 0x13, 0x01, 0xda, 0x19, 0x1f,
  0x0c, 0xd5, 0xea, 0xa4, 0x2c, 0x17, 0x0b, 0x11, 0x13, 0xef, 0x0c, 0x05,
  0xb8, 0x10, 0x03, 0xfc, 0x0b, 0x16, 0x08, 0x1e, 0xff, 0xcd, 0xfa, 0x34,
  0xb4, 0xed, 0xee, 0x0d, 0x03, 0xc7, 0xfa, 0x1d, 0x15, 0xd9, 0xe1, 0x97,
  0x2e, 0x16, 0xfc, 0x08, 0x06, 0xfa, 0x21, 0x18, 0xb4, 0x0b, 0xfb, 0x09,
  0x05, 0x17, 0x16, 0x1c, 0xf8, 0xdd, 0x0f, 0x15, 0xa3, 0x03, 0xee, 0x03,
  0x12, 0xcf, 0x0a, 0x0f, 0x03, 0xd0, 0xec, 0x9e, 0x0c, 0x29, 0x0a, 0x18,
  0x12, 0xe8, 0x1b, 0x15, 0xbb, 0x27, 0xf0, 0x15, 0x0a, 0x1a, 0x0a, 0x10,
  0xee, 0xe2, 0x11, 0x3a, 0xb7, 0xd7, 0x06, 0x09, 0x13, 0xda, 0x05, 0x15,
  0x07, 0xd1, 0xee, 0xbe, 0x18, 0x04, 0x0a, 0x0e, 0x05, 0xf4, 0x20, 0x13,
  0xc0, 0x18, 0xf1, 0x25, 0x28, 0x2b, 0x18, 0x0e, 0xf7, 0xe3, 0x11, 0x22,
  0xac, 0xf8, 0xf9, 0x11, 0x1a, 0xdd, 0x1b, 0x17, 0x08, 0xc8, 0xfb, 0xb1,
  0x02, 0x0c, 0x01, 0x04, 0xf9, 0xe4, 0x12, 0x0c, 0xaf, 0x2f, 0xec, 0x10,
  0xf7, 0x18, 0x11, 0x18, 0xed, 0xdc, 0x11, 0x2b, 0xb1, 0xec, 0xe4, 0x1a,
  0x1f, 0xde, 0x19, 0x16, 0x05, 0xce, 0xee, 0xaa, 0x05, 0x26, 0x07, 0x17,
  0xf8, 0xdf, 0x27, 0x0c, 0xad, 0x19, 0xf7, 0x01, 0x12, 0x10, 0x1a, 0x01,
  0xf9, 0xe3, 0x16, 0x25, 0xac, 0xe0, 0xf1, 0x06, 0x10, 0xd4, 0x1a, 0x1c,
  0x11, 0xc5, 0x02, 0xa7, 0x11, 0x1e, 0x07, 0x15, 0xf5, 0xed, 0x1d, 0x11,
  0xbe, 0x1a, 0xf6, 0xfb, 0x05, 0x17, 0x0b, 0x0b, 0xff, 0xe2, 0x16, 0x37,
  0xaf, 0xee, 0xfa, 0x01, 0x11, 0xd1, 0x24, 0x0f, 0x29, 0xbc, 0xf3, 0x98,
  0x13, 0x31, 0x09, 0x18, 0xee, 0xcd, 0x1a, 0x2d, 0xb7, 0x33, 0xff, 0x09,
  0xfb, 0x2a, 0x19, 0x03, 0x02, 0xd5, 0x10, 0x31, 0xaa, 0xe4, 0xe9, 0x0f,
  0x22, 0xc1, 0x19, 0x1c, 0x1b, 0xca, 0xf3, 0x8c, 0x15, 0x14, 0xf4, 0xff,
  0xff, 0xe2, 0x15, 0x1b, 0xbc, 0x12, 0x05, 0x12, 0xf4, 0x14, 0x17, 0x2d,
  0xe8, 0xe1, 0x22, 0x24, 0xa8, 0xfc, 0xe0, 0x0f, 0x18, 0xd3, 0x16, 0x14,
  0x08, 0xce, 0x08, 0x96, 0x1a, 0x19, 0x13, 0x0f, 0x11, 0xe3, 0x12, 0x0f,
  0xd6, 0x31, 0xf2, 0x14, 0x07, 0x16, 0x18, 0x0c, 0xf2, 0xd8, 0x0b, 0x29,
  0xa5, 0xfa, 0xea, 0x19, 0x1f, 0xdd, 0x1b, 0x19, 0x0c, 0xdc, 0xf2, 0x92,
  0x18, 0x1d, 0x1b, 0x10, 0xff, 0xee, 0x1d, 0x24, 0xb5, 0x25, 0xed, 0x10,
  0x09, 0x1c, 0x22, 0x0d, 0xf6, 0xe7, 0x0b, 0x18, 0xb5, 0xe7, 0xdd, 0x1c,
  0x19, 0xd1, 0x18, 0x13, 0x16, 0xcf, 0xe8, 0x91, 0x1c, 0x05, 0x07, 0x06,
  0x02, 0x05, 0x14, 0x18, 0xc7, 0x27, 0xf4, 0x13, 0xfa, 0x20, 0x25, 0x09,
  0xf7, 0xe6, 0x15, 0x30, 0xa5, 0xd4, 0xdc, 0x11, 0x21, 0xc6, 0x22, 0x12,
  0x28, 0xd8, 0xf9, 0xbc, 0x24, 0x18, 0x04, 0x18, 0x0f, 0xfc, 0x2d, 0x13,
  0xd8, 0x07, 0xfa, 0xfe, 0xf7, 0x15, 0x07, 0xfd, 0xe8, 0xe1, 0x20, 0x25,
  0xaf, 0xdd, 0xd3, 0x0a, 0x2d, 0xc5, 0x0d, 0x18, 0x23, 0xd4, 0x02, 0xa7,
  0x1c, 0x08, 0x03, 0xf0, 0x15, 0xdd, 0x21, 0x16, 0xc4, 0x05, 0xf6, 0x14,
  0x15, 0x19, 0x23, 0x04, 0xf8, 0xe0, 0x09, 0x1b, 0xaf, 0xe2, 0xcf, 0x0b,
  0x14, 0xde, 0x16, 0x1f, 0x2b, 0xdb, 0x05, 0xa4, 0x21, 0xff, 0x0d, 0xfa,
  0x05, 0xee, 0x23, 0x1b, 0xc3, 0x15, 0xfb, 0x1c, 0x1f, 0x1d, 0x15, 0x10,
  0x0e, 0xe7, 0x0b, 0x23, 0xbf, 0xd8, 0xc2, 0x05, 0x1a, 0xdf, 0x15, 0x16,
  0x22, 0xd6, 0x07, 0x9f, 0x20, 0x04, 0x06, 0x08, 0xf8, 0x01, 0x06, 0x02,
  0xc5, 0x02, 0xf2, 0x20, 0xfe, 0x1b, 0x16, 0xf2, 0xff, 0xfa, 0x16, 0x15,
  0xba, 0xc5, 0xd2, 0x1d, 0x17, 0xe3, 0x08, 0x08, 0x13, 0xd2, 0x06, 0xab,
  0x25, 0xf8, 0x07, 0x0a, 0x02, 0xf7, 0x18, 0x1d, 0xd1, 0x17, 0x02, 0x18,
  0x0b, 0x19, 0x21, 0xff, 0x03, 0xe9, 0xf4, 0x14, 0xb1, 0xe0, 0xcd, 0x15,
  0x14, 0xe3, 0x12, 0x18, 0x16, 0xde, 0xec, 0xb8, 0x30, 0xfe, 0xfb, 0x04,
  0x03, 0xf8, 0x1f, 0x15, 0xc2, 0x10, 0xf2, 0x19, 0xfe, 0x22, 0x06, 0x03,
  0xf6, 0xe2, 0x02, 0x0b, 0xe4, 0xd3, 0xbb, 0x04, 0x11, 0xe5, 0x12, 0x08,
  0x0e, 0xea, 0xfb, 0xb5, 0x2e, 0xf6, 0x11, 0x14, 0x14, 0xec, 0x0c, 0x16,
  0xdb, 0x05, 0xe2, 0x13, 0x16, 0x14, 0x29, 0x13, 0xf7, 0xe2, 0x10, 0x09,
  0xb1, 0xe9, 0xc8, 0x15, 0x07, 0xe2, 0x08, 0x13, 0x07, 0xcf, 0xe5, 0xb4,
  0x2d, 0x08, 0x00, 0x0a, 0x0c, 0xe3, 0x1e, 0x29, 0xcf, 0x10, 0xf9, 0x31,
  0x25, 0x08, 0x13, 0x11, 0xf2, 0xfb, 0x14, 0x0e, 0xd9, 0xd7, 0xaa, 0x04,
  0x18, 0xe6, 0xfb, 0x05, 0x16, 0xe9, 0x16, 0x9b, 0x1c, 0x1d, 0x13, 0x0b,
  0x0f, 0x0c, 0x26, 0x2c, 0xc9, 0x18, 0xeb, 0x12, 0x14, 0x18, 0x19, 0x0c,
  0x02, 0xf4, 0x17, 0x29, 0xdf, 0xde, 0xae, 0x10, 0x15, 0xe5, 0x14, 0x19,
  0x0a, 0xe4, 0x1d, 0x99, 0x28, 0x03, 0x02, 0xfc, 0xfc, 0xed, 0x07, 0x1f,
  0xc0, 0x12, 0xe4, 0x15, 0x08, 0x13, 0x20, 0x1c, 0xf6, 0xea, 0x16, 0x14,
  0xdc, 0xf6, 0xbb, 0x0b, 0x1e, 0xe9, 0x10, 0x14, 0x07, 0xd8, 0x07, 0xa3,
  0x21, 0x06, 0x09, 0x01, 0x06, 0xfa, 0x1b, 0x1a, 0xc9, 0x0e, 0xdd, 0x1c,
  0x0c, 0x14, 0x17, 0x03, 0xf6, 0xff, 0x10, 0x26, 0xc5, 0xe1, 0xc9, 0x0d,
  0x1f, 0xd9, 0x02, 0x17, 0x11, 0xce, 0x08, 0xb1, 0x3a, 0x0e, 0x07, 0xfe,
  0x01, 0xf1, 0x22, 0x18, 0xcb, 0x00, 0xeb, 0x0a, 0xfe, 0x17, 0x1d, 0x1a,
  0xf7, 0xfb, 0x13, 0x1e, 0xc9, 0xe7, 0xd6, 0x18, 0x15, 0xd3, 0xfc, 0x19,
  0x17, 0xca, 0x17, 0x9b, 0x26, 0x05, 0x06, 0x08, 0x0e, 0xe4, 0x16, 0x12,
  0xc4, 0x14, 0xd4, 0x29, 0x02, 0x20, 0x10, 0x19, 0xd5, 0x02, 0x23, 0x0d,
  0xc0, 0xe8, 0xc4, 0x14, 0x22, 0xe0, 0x17, 0x17, 0x1f, 0xca, 0x16, 0xb2,
  0x1e, 0xec, 0x03, 0x09, 0xff, 0xee, 0x29, 0x26, 0xdc, 0xd5, 0xd1, 0xc9,
  0xaf, 0xd3, 0xc4, 0xf1, 0xa0, 0x08, 0xb9, 0x05, 0x12, 0xfa, 0x0b, 0x13,
  0xf8, 0x1f, 0x1d, 0xd2, 0xdd, 0xa6, 0xf1, 0xf8, 0xdf, 0xe4, 0xe3, 0x08,
  0xd0, 0xe7, 0xd2, 0xf7, 0xe8, 0x19, 0xe9, 0xeb, 0xba, 0xe7, 0xdd, 0xed,
  0xa4, 0xf6, 0xd7, 0xfa, 0x55, 0x35, 0x18, 0x15, 0x09, 0x46, 0x15, 0xd8,
  0xdc, 0xdb, 0xf4, 0x1a, 0x00, 0xc9, 0xee, 0xff, 0xe1, 0xf4, 0xd6, 0xca,
  0xee, 0xe3, 0xdf, 0xe8, 0xdc, 0xcd, 0xd0, 0x0f, 0xa8, 0x08, 0xde, 0xe6,
  0x41, 0x3d, 0x26, 0x26, 0xf4, 0x26, 0x0a, 0xe5, 0xdc, 0xc3, 0xf6, 0x19,
  0x11, 0xcf, 0x11, 0xfb, 0xe1, 0x0d, 0xd8, 0xe6, 0xdb, 0xfa, 0xfe, 0xf8,
  0xca, 0xc6, 0xe6, 0x0b, 0xcb, 0x09, 0xbc, 0xdb, 0x40, 0x46, 0x2a, 0x29,
  0xdd, 0x13, 0x0c, 0xe4, 0xc6, 0xc9, 0x08, 0x31, 0x0a, 0xe4, 0x16, 0x0f,
  0xd6, 0x20, 0xd6, 0xd6, 0xfe, 0x0d, 0xeb, 0xc3, 0xe1, 0xc4, 0xe1, 0xe6,
  0xca, 0x0b, 0xe0, 0xf6, 0x58, 0x5b, 0x2e, 0x20, 0x0c, 0x35, 0x15, 0xea,
  0xdf, 0xce, 0x05, 0x25, 0x31, 0xdb, 0x2c, 0x11, 0xa7, 0xf7, 0xdd, 0xbc,
  0x12, 0x04, 0xcc, 0xc3, 0xc9, 0xe9, 0xe4, 0xec, 0xb8, 0x06, 0xd5, 0xf2,
  0x4e, 0x49, 0x31, 0x36, 0xf0, 0x35, 0x09, 0xe2, 0xd6, 0xf4, 0x18, 0x1d,
  0xfd, 0xd0, 0x24, 0x12, 0xb8, 0x14, 0xd2, 0xda, 0xf1, 0xfd, 0xd8, 0xc3,
  0xdb, 0xd5, 0xd6, 0xf9, 0xa2, 0x02, 0xc8, 0x03, 0x3c, 0x4b, 0x02, 0x1a,
  0x0a, 0x43, 0x04, 0xf0, 0xdc, 0xd3, 0x24, 0x24, 0x12, 0xdb, 0x13, 0x14,
  0xc2, 0x16, 0xe7, 0xe2, 0xeb, 0x0c, 0xca, 0xbe, 0xcf, 0xd5, 0xca, 0x05,
  0xae, 0x06, 0xd3, 0xf0, 0x2d, 0x38, 0x12, 0x27, 0x07, 0x4f, 0x32, 0xf7,
  0xc8, 0xdb, 0x16, 0x24, 0x12, 0xd9, 0x27, 0x22, 0xac, 0xd5, 0xe5, 0xe2,
  0xed, 0xfe, 0xd0, 0xd5, 0xbd, 0xc8, 0xc5, 0xfa, 0xaf, 0x1c, 0xc9, 0xd7,
  0x2d, 0x63, 0x21, 0x36, 0xf2, 0x39, 0x24, 0xde, 0xc7, 0xd2, 0x1f, 0x25,
  0xf9, 0xb5, 0x32, 0x20, 0xaf, 0x05, 0xe9, 0xc2, 0xf8, 0xe4, 0xd6, 0xc2,
  0xda, 0xbb, 0xe0, 0xfe, 0xb3, 0x1b, 0xcc, 0x09, 0x54, 0x3f, 0x10, 0x35,
  0x0f, 0x51, 0x2c, 0xee, 0xb9, 0xc9, 0x10, 0x45, 0xf4, 0xc3, 0x1c, 0x19,
  0xa1, 0x19, 0xe3, 0x93, 0xf0, 0xde, 0xe9, 0xe8, 0xc4, 0xbc, 0xcd, 0x02,
  0xbc, 0x12, 0xdd, 0xe6, 0x36, 0x4f, 0x18, 0x30, 0xe6, 0x45, 0x2e, 0xf0,
  0xb0, 0xc0, 0x29, 0x35, 0xeb, 0xc0, 0x29, 0x21, 0xb0, 0xf3, 0xda, 0xaf,
  0xd8, 0xe4, 0xd5, 0xa2, 0xe0, 0xdc, 0xd3, 0x1b, 0xaf, 0x0c, 0xd5, 0xca,
  0x42, 0x47, 0x0e, 0x34, 0xfa, 0x3d, 0x23, 0x09, 0xd3, 0xd5, 0x33, 0x36,
  0xf7, 0xd5, 0x2a, 0x2c, 0xa9, 0x01, 0xe1, 0xcc, 0xea, 0xd8, 0xf1, 0xc1,
  0xd6, 0xcd, 0xc8, 0x0c, 0xb3, 0x05, 0xc0, 0xef, 0x12, 0x45, 0x21, 0x2f,
  0xf2, 0x51, 0x21, 0xf3, 0xcb, 0xba, 0x21, 0x27, 0x17, 0xcd, 0x21, 0x19,
  0xab, 0xfd, 0xcc, 0xc4, 0xef, 0xf4, 0xe5, 0xc7, 0xbb, 0xe4, 0xc6, 0x1e,
  0xcc, 0xf4, 0xc2, 0xed, 0x29, 0x48, 0x0a, 0x3d, 0xf6, 0x56, 0x15, 0x0f,
  0xd2, 0xdd, 0x22, 0x2f, 0xfa, 0xc2, 0x28, 0x2c, 0xa6, 0xe7, 0xe8, 0xa7,
  0xda, 0xe7, 0xda, 0xbc, 0xc5, 0xc5, 0xd8, 0x21, 0xc3, 0x04, 0xc3, 0xc7,
  0x3f, 0x29, 0x12, 0x29, 0xe6, 0x36, 0x25, 0x02, 0xb4, 0xe0, 0x3a, 0xfe,
  0xed, 0xcf, 0x2d, 0x15, 0xb6, 0xfb, 0xeb, 0xa8, 0xf9, 0xe8, 0xb9, 0xc3,
  0xc0, 0xd2, 0xac, 0x0e, 0xae, 0x01, 0xb2, 0xd0, 0x3c, 0x3a, 0x1e, 0x1e,
  0xe0, 0x61, 0x22, 0x06, 0xb4, 0xe2, 0x2e, 0x1c, 0xe3, 0xed, 0x15, 0x11,
  0xa1, 0x04, 0xd1, 0xb6, 0x04, 0xe2, 0xf6, 0xd1, 0xb7, 0xd0, 0xd8, 0x05,
  0xbe, 0x10, 0xce, 0xe3, 0x26, 0x3f, 0x10, 0x21, 0x0b, 0x54, 0x0b, 0xfb,
  0xc4, 0xdb, 0x21, 0x4f, 0xff, 0xde, 0x2d, 0x25, 0xb2, 0x19, 0xd5, 0xd1,
  0xe7, 0xe8, 0xd7, 0xcf, 0xd6, 0xb8, 0xbb, 0x01, 0xbd, 0x0f, 0xc0, 0xd2,
  0x48, 0x30, 0x0a, 0x18, 0xca, 0x50, 0x15, 0xfb, 0xbf, 0xc0, 0x30, 0x00,
  0xff, 0xd5, 0x33, 0x1d, 0xb0, 0xe5, 0xc2, 0xc7, 0x08, 0xeb, 0xe6, 0xbf,
  0xce, 0xc8, 0xb3, 0x0a, 0xd9, 0x16, 0xc0, 0xdf, 0x41, 0x4f, 0x2d, 0x22,
  0xf2, 0x25, 0x23, 0x06, 0xb9, 0xd5, 0x2f, 0x36, 0xe8, 0xb4, 0x16, 0x14,
  0xbd, 0x01, 0xeb, 0xc7, 0xef, 0xe6, 0xe5, 0xca, 0xb8, 0xcf, 0xa9, 0x1a,
  0xa4, 0x22, 0xa8, 0xd8, 0x47, 0x35, 0x1f, 0x26, 0xd0, 0x52, 0x26, 0x0f,
  0xbe, 0xcd, 0x1e, 0x40, 0xe7, 0xc6, 0x1c, 0x12, 0xc2, 0xf1, 0xdc, 0xc2,
  0xf4, 0xda, 0xd6, 0xfb, 0xbe, 0xc6, 0xbf, 0x12, 0xaf, 0x0a, 0xb6, 0xb9,
  0x58, 0x18, 0x14, 0x1c, 0xdb, 0x51, 0x17, 0x04, 0xbc, 0xc2, 0x1f, 0x2a,
  0x02, 0xbe, 0x19, 0x2c, 0xc4, 0xf6, 0xdd, 0xa7, 0x05, 0xcf, 0xd4, 0xdf,
  0xaf, 0xbf, 0xc3, 0x0a, 0xc9, 0x09, 0xae, 0xd0, 0x2a, 0x30, 0x2a, 0x1c,
  0xd8, 0x54, 0x12, 0xfd, 0xb6, 0xd0, 0x06, 0x32, 0xea, 0xd6, 0x14, 0x24,
  0xad, 0x00, 0xe0, 0xb7, 0xeb, 0xe8, 0xd5, 0xcb, 0xd8, 0xcc, 0xcd, 0x09,
  0xa2, 0xf4, 0xca, 0xc0, 0x5b, 0x49, 0x0f, 0x2a, 0xe0, 0x4b, 0x15, 0x07,
  0xa7, 0xdd, 0x35, 0x32, 0xd1, 0xc0, 0x19, 0x1f, 0xb0, 0xf1, 0xe7, 0xab,
  0xde, 0xca, 0xbf, 0xc1, 0xb4, 0xc0, 0x9e, 0x12, 0xab, 0x00, 0xb0, 0xca,
  0x59, 0x3f, 0x21, 0x14, 0xf1, 0x44, 0x18, 0x03, 0xbb, 0xc7, 0x31, 0x33,
  0xf9, 0xdd, 0x24, 0x22, 0x92, 0xf8, 0xf0, 0xb2, 0xf1, 0xb3, 0xe2, 0xc0,
  0xc5, 0xb2, 0xb4, 0x1c, 0xbf, 0x28, 0xab, 0xc6, 0x4d, 0x3e, 0x0d, 0x2f,
  0xcd, 0x3e, 0x09, 0x11, 0xca, 0xe4, 0x2b, 0x39, 0xde, 0xd7, 0x1b, 0x1b,
  0xb0, 0x22, 0xea, 0xa3, 0xf7, 0xdd, 0xd8, 0xc0, 0xd4, 0xb5, 0xc6, 0x17,
  0xae, 0x0e, 0xbd, 0xea, 0x55, 0x69, 0x2a, 0x1a, 0xc8, 0x4f, 0x18, 0x17,
  0x9e, 0xeb, 0x3a, 0x46, 0xc5, 0xda, 0x26, 0x15, 0xc0, 0xf9, 0xd4, 0xa5,
  0xdf, 0xf8, 0xe7, 0xc6, 0xce, 0xb2, 0x9e, 0x19, 0xb4, 0x23, 0xa4, 0xd8,
  0x28, 0x68, 0x19, 0x1a, 0xdc, 0x43, 0x1d, 0x0b, 0xca, 0xe3, 0x12, 0x51,
  0xea, 0xb8, 0x0e, 0x1f, 0xa0, 0xfd, 0xf5, 0xb0, 0x03, 0xd5, 0xdc, 0xbe,
  0xcc, 0xb5, 0xbf, 0x0b, 0xc1, 0x12, 0xb4, 0xdc, 0x66, 0x41, 0x25, 0x1e,
  0xea, 0x46, 0x07, 0x0d, 0xb8, 0xd9, 0x06, 0x32, 0xe5, 0xb6, 0x2c, 0x19,
  0xab, 0xe3, 0xea, 0x8f, 0xef, 0xe3, 0xc8, 0xbd, 0xd1, 0xcd, 0xc5, 0x22,
  0xbf, 0x0b, 0xcc, 0xef, 0x3d, 0x7f, 0x16, 0x22, 0xe5, 0x37, 0x13, 0x0e,
  0xbb, 0xe3, 0x08, 0x2d, 0xee, 0xc4, 0x26, 0x1d, 0x99, 0x03, 0xe6, 0xac,
  0x04, 0xf4, 0xbc, 0xb6, 0xd3, 0xb5, 0xb9, 0x12, 0xc2, 0x0f, 0xbb, 0xd8,
  0x44, 0x4e, 0x22, 0x1a, 0xd9, 0x45, 0x1b, 0xf7, 0xcb, 0xe3, 0x11, 0x3b,
  0xe7, 0xca, 0x2b, 0x35, 0x8b, 0x07, 0xee, 0xb9, 0xdb, 0xd3, 0xf5, 0xc9,
  0xc3, 0xc9, 0xc9, 0x1b, 0xdb, 0x22, 0xd9, 0xe9, 0x3d, 0x52, 0x27, 0x24,
  0xf1, 0x48, 0x08, 0xf1, 0xba, 0xdf, 0x0b, 0x2d, 0xf6, 0xd3, 0x37, 0x30,
  0x8c, 0xe9, 0xe9, 0xb3, 0xe2, 0xdf, 0xdb, 0xc7, 0xaf, 0xad, 0xbf, 0x0b,
  0xbb, 0x0f, 0xbb, 0xf8, 0x22, 0x3b, 0x48, 0x26, 0xe4, 0x23, 0x12, 0xf2,
  0xca, 0xeb, 0x01, 0x2a, 0xed, 0xc4, 0x2c, 0x19, 0xaf, 0xf2, 0xf5, 0xcf,
  0xd5, 0xe3, 0xeb, 0xd2, 0xa6, 0xc8, 0xb3, 0x09, 0xd0, 0x04, 0xb2, 0xfb,
  0x41, 0x52, 0x39, 0x1d, 0xe3, 0x57, 0x16, 0x05, 0xb3, 0xe0, 0x1a, 0x20,
  0xf7, 0xcb, 0x3b, 0x18, 0x9f, 0x07, 0xe8, 0xa5, 0xe6, 0xd0, 0xc8, 0xdc,
  0xc6, 0xa8, 0xc4, 0x0f, 0xbf, 0x1c, 0xcd, 0xe4, 0x2f, 0x4a, 0x1e, 0x11,
  0xf4, 0x3f, 0x12, 0xe5, 0xc3, 0xde, 0x10, 0x22, 0xdd, 0xcd, 0x3e, 0x20,
  0xba, 0xf5, 0xe7, 0xb0, 0xd3, 0xe0, 0xf1, 0xc2, 0xb7, 0xd7, 0xbb, 0xf5,
  0xde, 0x1e, 0xa3, 0xf9, 0x44, 0x54, 0x2c, 0x15, 0x0a, 0x39, 0x02, 0xcd,
  0xdf, 0xf0, 0xf7, 0x19, 0xfa, 0xdd, 0x23, 0x13, 0xbd, 0xe1, 0xdf, 0xaa,
  0x06, 0xde, 0xff, 0xe0, 0xc8, 0xd1, 0xcb, 0xfc, 0xef, 0x15, 0xcb, 0xf8,
  0x3c, 0x6f, 0x18, 0x31, 0xfe, 0x2c, 0x26, 0xed, 0xc4, 0xe7, 0x18, 0x1e,
  0xf6, 0xbd, 0x25, 0x1f, 0xcf, 0xfe, 0xe4, 0xbb, 0xdb, 0xcf, 0x03, 0xbf,
  0xcc, 0xed, 0xd4, 0x0c, 0xee, 0xfe, 0xc7, 0xf8, 0x29, 0x4f, 0x19, 0x30,
  0x1c, 0x40, 0x10, 0xe0, 0xd3, 0xe4, 0xfb, 0x22, 0x19, 0xb0, 0x25, 0x05,
  0xb2, 0xf3, 0xdb, 0xcc, 0xe6, 0xe1, 0x03, 0xd1, 0xbb, 0xe5, 0xcd, 0xf9,
  0xd7, 0x08, 0xc4, 0x07, 0x2a, 0x65, 0x13, 0x17, 0x1b, 0x3a, 0x1b, 0xf4,
  0xc0, 0xc7, 0xfa, 0x36, 0xfb, 0xc4, 0x1d, 0x08, 0xbb, 0x18, 0xdb, 0xb0,
  0xee, 0xf1, 0xfb, 0xd7, 0xe0, 0xa9, 0xbc, 0xf6, 0xc5, 0x18, 0xc0, 0xd8,
  0x4a, 0x75, 0x0f, 0x1e, 0x08, 0x2b, 0x12, 0xf3, 0xdb, 0xdf, 0x09, 0x1e,
  0xfb, 0xcb, 0x0c, 0x0e, 0xd0, 0xfe, 0xdc, 0xab, 0xe6, 0xf6, 0xd8, 0xe1,
  0x90, 0xa7, 0xad, 0xf3, 0xcd, 0x03, 0x9f, 0x09, 0x10, 0x03, 0xfd, 0x13,
  0x03, 0x15, 0xf5, 0xe9, 0xb6, 0xe8, 0x05, 0xff, 0xe1, 0xd9, 0x15, 0x0f,
  0xa0, 0x11, 0xe7, 0xbb, 0xd2, 0xfe, 0xff, 0xff, 0x04, 0x00, 0x00, 0x00,
  0x10, 0x00, 0x00, 0x00, 0x2f, 0xff, 0xff, 0xff, 0x7f, 0x00, 0x00, 0x00,
  0x79, 0x00, 0x00, 0x00, 0xa1, 0xff, 0xff, 0xff, 0xee, 0xfe, 0xff, 0xff,
  0x04, 0x00, 0x00, 0x00, 0x08, 0x00, 0x00, 0x00, 0xff, 0xff, 0xff, 0xff,
  0x00, 0x05, 0x00, 0x00, 0x02, 0xff, 0xff, 0xff, 0x04, 0x00, 0x00, 0x00,
  0x04, 0x00, 0x00, 0x00, 0x01, 0x00, 0x00, 0x00, 0x12, 0xff, 0xff, 0xff,
  0x04, 0x00, 0x00, 0x00, 0x0c, 0x00, 0x00, 0x00, 0xff, 0xff, 0xff, 0xff,
  0x7a, 0x00, 0x00, 0x00, 0x20, 0x00, 0x00, 0x00, 0x2a, 0xff, 0xff, 0xff,
  0x04, 0x00, 0x00, 0x00, 0x04, 0x00, 0x00, 0x00, 0xfd, 0xff, 0xff, 0xff,
  0x8c, 0xed, 0xff, 0xff, 0x90, 0xed, 0xff, 0xff, 0x0f, 0x00, 0x00, 0x00,
  0x4d, 0x4c, 0x49, 0x52, 0x20, 0x43, 0x6f, 0x6e, 0x76, 0x65, 0x72, 0x74,
  0x65, 0x64, 0x2e, 0x00, 0x01, 0x00, 0x00, 0x00, 0x14, 0x00, 0x00, 0x00,
  0x00, 0x00, 0x0e, 0x00, 0x18, 0x00, 0x14, 0x00, 0x10, 0x00, 0x0c, 0x00,
  0x08, 0x00, 0x04, 0x00, 0x0e, 0x00, 0x00, 0x00, 0x14, 0x00, 0x00, 0x00,
  0x1c, 0x00, 0x00, 0x00, 0xfc, 0x02, 0x00, 0x00, 0x00, 0x03, 0x00, 0x00,
  0x04, 0x03, 0x00, 0x00, 0x04, 0x00, 0x00, 0x00, 0x6d, 0x61, 0x69, 0x6e,
  0x00, 0x00, 0x00, 0x00, 0x0d, 0x00, 0x00, 0x00, 0xc4, 0x02, 0x00, 0x00,
  0x84, 0x02, 0x00, 0x00, 0x24, 0x02, 0x00, 0x00, 0xfc, 0x01, 0x00, 0x00,
  0xb0, 0x01, 0x00, 0x00, 0x7c, 0x01, 0x00, 0x00, 0x28, 0x01, 0x00, 0x00,
  0xf4, 0x00, 0x00, 0x00, 0xc0, 0x00, 0x00, 0x00, 0x98, 0x00, 0x00, 0x00,
  0x60, 0x00, 0x00, 0x00, 0x24, 0x00, 0x00, 0x00, 0x04, 0x00, 0x00, 0x00,
  0x7a, 0xfd, 0xff, 0xff, 0x08, 0x00, 0x00, 0x00, 0x0c, 0x00, 0x00, 0x00,
  0x01, 0x00, 0x00, 0x00, 0x18, 0x00, 0x00, 0x00, 0x01, 0x00, 0x00, 0x00,
  0x17, 0x00, 0x00, 0x00, 0xd6, 0xfd, 0xff, 0xff, 0x1c, 0x00, 0x00, 0x00,
  0x00, 0x00, 0x00, 0x09, 0x1c, 0x00, 0x00, 0x00, 0x20, 0x00, 0x00, 0x00,
  0x08, 0x00, 0x00, 0x00, 0x00, 0x00, 0x06, 0x00, 0x08, 0x00, 0x04, 0x00,
  0x06, 0x00, 0x00, 0x00, 0x00, 0x00, 0x80, 0x3f, 0x01, 0x00, 0x00, 0x00,
  0x17, 0x00, 0x00, 0x00, 0x01, 0x00, 0x00, 0x00, 0x16, 0x00, 0x00, 0x00,
  0x0e, 0xfe, 0xff, 0xff, 0x14, 0x00, 0x00, 0x00, 0x00, 0x00, 0x00, 0x08,
  0x10, 0x00, 0x00, 0x00, 0x14, 0x00, 0x00, 0x00, 0x07, 0x00, 0x00, 0x00,
  0x88, 0xee, 0xff, 0xff, 0x01, 0x00, 0x00, 0x00, 0x16, 0x00, 0x00, 0x00,
  0x03, 0x00, 0x00, 0x00, 0x15, 0x00, 0x00, 0x00, 0x06, 0x00, 0x00, 0x00,
  0x05, 0x00, 0x00, 0x00, 0xbe, 0xfe, 0xff, 0xff, 0x0c, 0x00, 0x00, 0x00,
  0x10, 0x00, 0x00, 0x00, 0x03, 0x00, 0x00, 0x00, 0x01, 0x00, 0x00, 0x00,
  0x15, 0x00, 0x00, 0x00, 0x02, 0x00, 0x00, 0x00, 0x14, 0x00, 0x00, 0x00,
  0x04, 0x00, 0x00, 0x00, 0x66, 0xfe, 0xff, 0xff, 0x14, 0x00, 0x00, 0x00,
  0x00, 0x00, 0x00, 0x0b, 0x10, 0x00, 0x00, 0x00, 0x14, 0x00, 0x00, 0x00,
  0x04, 0x00, 0x00, 0x00, 0xe0, 0xee, 0xff, 0xff, 0x01, 0x00, 0x00, 0x00,
  0x14, 0x00, 0x00, 0x00, 0x02, 0x00, 0x00, 0x00, 0x13, 0x00, 0x00, 0x00,
  0x07, 0x00, 0x00, 0x00, 0x96, 0xfe, 0xff, 0xff, 0x14, 0x00, 0x00, 0x00,
  0x00, 0x00, 0x00, 0x15, 0x10, 0x00, 0x00, 0x00, 0x14, 0x00, 0x00, 0x00,
  0x06, 0x00, 0x00, 0x00, 0x10, 0xef, 0xff, 0xff, 0x01, 0x00, 0x00, 0x00,
  0x13, 0x00, 0x00, 0x00, 0x02, 0x00, 0x00, 0x00, 0x12, 0x00, 0x00, 0x00,
  0x08, 0x00, 0x00, 0x00, 0xc6, 0xfe, 0xff, 0xff, 0x24, 0x00, 0x00, 0x00,
  0x00, 0x00, 0x00, 0x05, 0x34, 0x00, 0x00, 0x00, 0x38, 0x00, 0x00, 0x00,
  0x05, 0x00, 0x00, 0x00, 0x00, 0x00, 0x0e, 0x00, 0x18, 0x00, 0x17, 0x00,
  0x10, 0x00, 0x0c, 0x00, 0x08, 0x00, 0x04, 0x00, 0x0e, 0x00, 0x00, 0x00,
  0x01, 0x00, 0x00, 0x00, 0x03, 0x00, 0x00, 0x00, 0x01, 0x00, 0x00, 0x00,
  0x03, 0x00, 0x00, 0x00, 0x00, 0x00, 0x00, 0x01, 0x01, 0x00, 0x00, 0x00,
  0x12, 0x00, 0x00, 0x00, 0x01, 0x00, 0x00, 0x00, 0x11, 0x00, 0x00, 0x00,
  0x16, 0xff, 0xff, 0xff, 0x14, 0x00, 0x00, 0x00, 0x00, 0x00, 0x00, 0x34,
  0x10, 0x00, 0x00, 0x00, 0x14, 0x00, 0x00, 0x00, 0x01, 0x00, 0x00, 0x00,
  0x90, 0xef, 0xff, 0xff, 0x01, 0x00, 0x00, 0x00, 0x11, 0x00, 0x00, 0x00,
  0x02, 0x00, 0x00, 0x00, 0x10, 0x00, 0x00, 0x00, 0x03, 0x00, 0x00, 0x00,
  0x46, 0xff, 0xff, 0xff, 0x1c, 0x00, 0x00, 0x00, 0x00, 0x00, 0x00, 0x0b,
  0x1c, 0x00, 0x00, 0x00, 0x20, 0x00, 0x00, 0x00, 0x04, 0x00, 0x00, 0x00,
  0x00, 0x00, 0x06, 0x00, 0x08, 0x00, 0x07, 0x00, 0x06, 0x00, 0x00, 0x00,
  0x00, 0x00, 0x00, 0x01, 0x01, 0x00, 0x00, 0x00, 0x10, 0x00, 0x00, 0x00,
  0x02, 0x00, 0x00, 0x00, 0x0f, 0x00, 0x00, 0x00, 0x09, 0x00, 0x00, 0x00,
  0x00, 0x00, 0x0a, 0x00, 0x10, 0x00, 0x0c, 0x00, 0x08, 0x00, 0x04, 0x00,
  0x0a, 0x00, 0x00, 0x00, 0x0c, 0x00, 0x00, 0x00, 0x10, 0x00, 0x00, 0x00,
  0x03, 0x00, 0x00, 0x00, 0x01, 0x00, 0x00, 0x00, 0x0f, 0x00, 0x00, 0x00,
  0x02, 0x00, 0x00, 0x00, 0x0e, 0x00, 0x00, 0x00, 0x02, 0x00, 0x00, 0x00,
  0xb2, 0xff, 0xff, 0xff, 0x20, 0x00, 0x00, 0x00, 0x00, 0x00, 0x00, 0x01,
  0x28, 0x00, 0x00, 0x00, 0x2c, 0x00, 0x00, 0x00, 0x02, 0x00, 0x00, 0x00,
  0x00, 0x00, 0x0a, 0x00, 0x10, 0x00, 0x0f, 0x00, 0x08, 0x00, 0x04, 0x00,
  0x0a, 0x00, 0x00, 0x00, 0x01, 0x00, 0x00, 0x00, 0x01, 0x00, 0x00, 0x00,
  0x00, 0x00, 0x00, 0x01, 0x01, 0x00, 0x00, 0x00, 0x0e, 0x00, 0x00, 0x00,
  0x03, 0x00, 0x00, 0x00, 0x0d, 0x00, 0x00, 0x00, 0x0b, 0x00, 0x00, 0x00,
  0x0a, 0x00, 0x00, 0x00, 0x00, 0x00, 0x0e, 0x00, 0x18, 0x00, 0x14, 0x00,
  0x10, 0x00, 0x0c, 0x00, 0x0b, 0x00, 0x04, 0x00, 0x0e, 0x00, 0x00, 0x00,
  0x14, 0x00, 0x00, 0x00, 0x00, 0x00, 0x00, 0x34, 0x10, 0x00, 0x00, 0x00,
  0x14, 0x00, 0x00, 0x00, 0x01, 0x00, 0x00, 0x00, 0x88, 0xf0, 0xff, 0xff,
  0x01, 0x00, 0x00, 0x00, 0x0d, 0x00, 0x00, 0x00, 0x02, 0x00, 0x00, 0x00,
  0x0c, 0x00, 0x00, 0x00, 0x01, 0x00, 0x00, 0x00, 0x00, 0x00, 0x0a, 0x00,
  0x0c, 0x00, 0x00, 0x00, 0x08, 0x00, 0x04, 0x00, 0x0a, 0x00, 0x00, 0x00,
  0x08, 0x00, 0x00, 0x00, 0x0c, 0x00, 0x00, 0x00, 0x01, 0x00, 0x00, 0x00,
  0x0c, 0x00, 0x00, 0x00, 0x01, 0x00, 0x00, 0x00, 0x00, 0x00, 0x00, 0x00,
  0x01, 0x00, 0x00, 0x00, 0x18, 0x00, 0x00, 0x00, 0x01, 0x00, 0x00, 0x00,
  0x00, 0x00, 0x00, 0x00, 0x19, 0x00, 0x00, 0x00, 0x5c, 0x0f, 0x00, 0x00,
  0x04, 0x0f, 0x00, 0x00, 0xac, 0x0e, 0x00, 0x00, 0x70, 0x0e, 0x00, 0x00,
  0x30, 0x0e, 0x00, 0x00, 0xa8, 0x0d, 0x00, 0x00, 0x1c, 0x0d, 0x00, 0x00,
  0xb8, 0x0c, 0x00, 0x00, 0x54, 0x0c, 0x00, 0x00, 0xe8, 0x0b, 0x00, 0x00,
  0x14, 0x0a, 0x00, 0x00, 0x30, 0x08, 0x00, 0x00, 0xb8, 0x07, 0x00, 0x00,
  0x18, 0x07, 0x00, 0x00, 0x84, 0x06, 0x00, 0x00, 0xec, 0x05, 0x00, 0x00,
  0x48, 0x05, 0x00, 0x00, 0xa0, 0x04, 0x00, 0x00, 0x04, 0x04, 0x00, 0x00,
  0x30, 0x03, 0x00, 0x00, 0x24, 0x02, 0x00, 0x00, 0xa0, 0x01, 0x00, 0x00,
  0x04, 0x01, 0x00, 0x00, 0x80, 0x00, 0x00, 0x00, 0x04, 0x00, 0x00, 0x00,
  0x1e, 0xf1, 0xff, 0xff, 0x00, 0x00, 0x00, 0x01, 0x18, 0x00, 0x00, 0x00,
  0x20, 0x00, 0x00, 0x00, 0x3c, 0x00, 0x00, 0x00, 0x19, 0x00, 0x00, 0x00,
  0x00, 0x00, 0x00, 0x03, 0x50, 0x00, 0x00, 0x00, 0x02, 0x00, 0x00, 0x00,
  0xff, 0xff, 0xff, 0xff, 0x04, 0x00, 0x00, 0x00, 0x04, 0xf1, 0xff, 0xff,
  0x08, 0x00, 0x00, 0x00, 0x10, 0x00, 0x00, 0x00, 0x01, 0x00, 0x00, 0x00,
  0x00, 0x00, 0x00, 0x00, 0x00, 0x00, 0x00, 0x00, 0x01, 0x00, 0x00, 0x00,
  0x00, 0x00, 0x80, 0x3b, 0x1b, 0x00, 0x00, 0x00, 0x53, 0x74, 0x61, 0x74,
  0x65, 0x66, 0x75, 0x6c, 0x50, 0x61, 0x72, 0x74, 0x69, 0x74, 0x69, 0x6f,
  0x6e, 0x65, 0x64, 0x43, 0x61, 0x6c, 0x6c, 0x5f, 0x31, 0x3a, 0x30, 0x00,
  0x02, 0x00, 0x00, 0x00, 0x01, 0x00, 0x00, 0x00, 0x04, 0x00, 0x00, 0x00,
  0x96, 0xf1, 0xff, 0xff, 0x00, 0x00, 0x00, 0x01, 0x18, 0x00, 0x00, 0x00,
  0x20, 0x00, 0x00, 0x00, 0x40, 0x00, 0x00, 0x00, 0x18, 0x00, 0x00, 0x00,
  0x00, 0x00, 0x00, 0x09, 0x58, 0x00, 0x00, 0x00, 0x02, 0x00, 0x00, 0x00,
  0xff, 0xff, 0xff, 0xff, 0x04, 0x00, 0x00, 0x00, 0x7c, 0xf1, 0xff, 0xff,
  0x08, 0x00, 0x00, 0x00, 0x14, 0x00, 0x00, 0x00, 0x01, 0x00, 0x00, 0x00,
  0x80, 0xff, 0xff, 0xff, 0xff, 0xff, 0xff, 0xff, 0x00, 0x00, 0x00, 0x00,
  0x01, 0x00, 0x00, 0x00, 0x00, 0x00, 0x80, 0x3b, 0x1c, 0x00, 0x00, 0x00,
  0x53, 0x74, 0x61, 0x74, 0x65, 0x66, 0x75, 0x6c, 0x50, 0x61, 0x72, 0x74,
  0x69, 0x74, 0x69, 0x6f, 0x6e, 0x65, 0x64, 0x43, 0x61, 0x6c, 0x6c, 0x5f,
  0x31, 0x3a, 0x30, 0x31, 0x00, 0x00, 0x00, 0x00, 0x02, 0x00, 0x00, 0x00,
  0x01, 0x00, 0x00, 0x00, 0x04, 0x00, 0x00, 0x00, 0x16, 0xf2, 0xff, 0xff,
  0x00, 0x00, 0x00, 0x01, 0x18, 0x00, 0x00, 0x00, 0x20, 0x00, 0x00, 0x00,
  0x40, 0x00, 0x00, 0x00, 0x17, 0x00, 0x00, 0x00, 0x00, 0x00, 0x00, 0x09,
  0x70, 0x00, 0x00, 0x00, 0x02, 0x00, 0x00, 0x00, 0xff, 0xff, 0xff, 0xff,
  0x04, 0x00, 0x00, 0x00, 0xfc, 0xf1, 0xff, 0xff, 0x08, 0x00, 0x00, 0x00,
  0x14, 0x00, 0x00, 0x00, 0x01, 0x00, 0x00, 0x00, 0xff, 0xff, 0xff, 0xff,
  0xff, 0xff, 0xff, 0xff, 0x00, 0x00, 0x00, 0x00, 0x01, 0x00, 0x00, 0x00,
  0x74, 0xae, 0x3c, 0x3f, 0x34, 0x00, 0x00, 0x00, 0x73, 0x65, 0x71, 0x75,
  0x65, 0x6e, 0x74, 0x69, 0x61, 0x6c, 0x5f, 0x31, 0x2f, 0x64, 0x65, 0x6e,
  0x73, 0x65, 0x5f, 0x31, 0x2f, 0x4d, 0x61, 0x74, 0x4d, 0x75, 0x6c, 0x3b,
  0x73, 0x65, 0x71, 0x75, 0x65, 0x6e, 0x74, 0x69, 0x61, 0x6c, 0x5f, 0x31,
  0x2f, 0x64, 0x65, 0x6e, 0x73, 0x65, 0x5f, 0x31, 0x2f, 0x41, 0x64, 0x64,
  0x00, 0x00, 0x00, 0x00, 0x02, 0x00, 0x00, 0x00, 0x01, 0x00, 0x00, 0x00,
  0x04, 0x00, 0x00, 0x00, 0xae, 0xf2, 0xff, 0xff, 0x00, 0x00, 0x00, 0x01,
  0x18, 0x00, 0x00, 0x00, 0x20, 0x00, 0x00, 0x00, 0x40, 0x00, 0x00, 0x00,
  0x16, 0x00, 0x00, 0x00, 0x00, 0x00, 0x00, 0x09, 0x58, 0x00, 0x00, 0x00,
  0x02, 0x00, 0x00, 0x00, 0xff, 0xff, 0xff, 0xff, 0x00, 0x05, 0x00, 0x00,
  0x94, 0xf2, 0xff, 0xff, 0x08, 0x00, 0x00, 0x00, 0x14, 0x00, 0x00, 0x00,
  0x01, 0x00, 0x00, 0x00, 0x89, 0xff, 0xff, 0xff, 0xff, 0xff, 0xff, 0xff,
  0x00, 0x00, 0x00, 0x00, 0x01, 0x00, 0x00, 0x00, 0x65, 0x04, 0x5a, 0x3e,
  0x1e, 0x00, 0x00, 0x00, 0x73, 0x65, 0x71, 0x75, 0x65, 0x6e, 0x74, 0x69,
  0x61, 0x6c, 0x5f, 0x31, 0x2f, 0x66, 0x6c, 0x61, 0x74, 0x74, 0x65, 0x6e,
  0x5f, 0x31, 0x2f, 0x52, 0x65, 0x73, 0x68, 0x61, 0x70, 0x65, 0x00, 0x00,
  0x02, 0x00, 0x00, 0x00, 0x01, 0x00, 0x00, 0x00, 0x00, 0x05, 0x00, 0x00,
  0x2e, 0xf3, 0xff, 0xff, 0x00, 0x00, 0x00, 0x01, 0x18, 0x00, 0x00, 0x00,
  0x28, 0x00, 0x00, 0x00, 0x48, 0x00, 0x00, 0x00, 0x15, 0x00, 0x00, 0x00,
  0x00, 0x00, 0x00, 0x09, 0xd8, 0x00, 0x00, 0x00, 0x04, 0x00, 0x00, 0x00,
  0xff, 0xff, 0xff, 0xff, 0x01, 0x00, 0x00, 0x00, 0x28, 0x00, 0x00, 0x00,
  0x20, 0x00, 0x00, 0x00, 0x1c, 0xf3, 0xff, 0xff, 0x08, 0x00, 0x00, 0x00,
  0x14, 0x00, 0x00, 0x00, 0x01, 0x00, 0x00, 0x00, 0x89, 0xff, 0xff, 0xff,
  0xff, 0xff, 0xff, 0xff, 0x00, 0x00, 0x00, 0x00, 0x01, 0x00, 0x00, 0x00,
  0x65, 0x04, 0x5a, 0x3e, 0x95, 0x00, 0x00, 0x00, 0x73, 0x65, 0x71, 0x75,
  0x65, 0x6e, 0x74, 0x69, 0x61, 0x6c, 0x5f, 0x31, 0x2f, 0x62, 0x61, 0x74,
  0x63, 0x68, 0x5f, 0x6e, 0x6f, 0x72, 0x6d, 0x61, 0x6c, 0x69, 0x7a, 0x61,
  0x74, 0x69, 0x6f, 0x6e, 0x5f, 0x31, 0x2f, 0x62, 0x61, 0x74, 0x63, 0x68,
  0x6e, 0x6f, 0x72, 0x6d, 0x2f, 0x61, 0x64, 0x64, 0x5f, 0x31, 0x3b, 0x73,
  0x65, 0x71, 0x75, 0x65, 0x6e, 0x74, 0x69, 0x61, 0x6c, 0x5f, 0x31, 0x2f,
  0x6d, 0x61, 0x78, 0x5f, 0x70, 0x6f, 0x6f, 0x6c, 0x69, 0x6e, 0x67, 0x31,
  0x64, 0x5f, 0x31, 0x2f, 0x4d, 0x61, 0x78, 0x50, 0x6f, 0x6f, 0x6c, 0x31,
  0x64, 0x2f, 0x53, 0x71, 0x75, 0x65, 0x65, 0x7a, 0x65, 0x3b, 0x73, 0x65,
  0x71, 0x75, 0x65, 0x6e, 0x74, 0x69, 0x61, 0x6c, 0x5f, 0x31, 0x2f, 0x62,
  0x61, 0x74, 0x63, 0x68, 0x5f, 0x6e, 0x6f, 0x72, 0x6d, 0x61, 0x6c, 0x69,
  0x7a, 0x61, 0x74, 0x69, 0x6f, 0x6e, 0x5f, 0x31, 0x2f, 0x62, 0x61, 0x74,
  0x63, 0x68, 0x6e, 0x6f, 0x72, 0x6d, 0x2f, 0x6d, 0x75, 0x6c, 0x5f, 0x31,
  0x3b, 0x00, 0x00, 0x00, 0x04, 0x00, 0x00, 0x00, 0x01, 0x00, 0x00, 0x00,
  0x01, 0x00, 0x00, 0x00, 0x28, 0x00, 0x00, 0x00, 0x20, 0x00, 0x00, 0x00,
  0x36, 0xf4, 0xff, 0xff, 0x00, 0x00, 0x00, 0x01, 0x18, 0x00, 0x00, 0x00,
  0x28, 0x00, 0x00, 0x00, 0x44, 0x00, 0x00, 0x00, 0x14, 0x00, 0x00, 0x00,
  0x00, 0x00, 0x00, 0x09, 0xa0, 0x00, 0x00, 0x00, 0x04, 0x00, 0x00, 0x00,
  0xff, 0xff, 0xff, 0xff, 0x01, 0x00, 0x00, 0x00, 0x28, 0x00, 0x00, 0x00,
  0x20, 0x00, 0x00, 0x00, 0x24, 0xf4, 0xff, 0xff, 0x08, 0x00, 0x00, 0x00,
  0x10, 0x00, 0x00, 0x00, 0x01, 0x00, 0x00, 0x00, 0x88, 0xff, 0xff, 0xff,
  0xff, 0xff, 0xff, 0xff, 0x01, 0x00, 0x00, 0x00, 0xa9, 0x04, 0x5b, 0x3e,
  0x62, 0x00, 0x00, 0x00, 0x73, 0x65, 0x71, 0x75, 0x65, 0x6e, 0x74, 0x69,
  0x61, 0x6c, 0x5f, 0x31, 0x2f, 0x62, 0x61, 0x74, 0x63, 0x68, 0x5f, 0x6e,
  0x6f, 0x72, 0x6d, 0x61, 0x6c, 0x69, 0x7a, 0x61, 0x74, 0x69, 0x6f, 0x6e,
  0x5f, 0x31, 0x2f, 0x62, 0x61, 0x74, 0x63, 0x68, 0x6e, 0x6f, 0x72, 0x6d,
  0x2f, 0x6d, 0x75, 0x6c, 0x5f, 0x31, 0x3b, 0x73, 0x65, 0x71, 0x75, 0x65,
  0x6e, 0x74, 0x69, 0x61, 0x6c, 0x5f, 0x31, 0x2f, 0x6d, 0x61, 0x78, 0x5f,
  0x70, 0x6f, 0x6f, 0x6c, 0x69, 0x6e, 0x67, 0x31, 0x64, 0x5f, 0x31, 0x2f,
  0x4d, 0x61, 0x78, 0x50, 0x6f, 0x6f, 0x6c, 0x31, 0x64, 0x2f, 0x53, 0x71,
  0x75, 0x65, 0x65, 0x7a, 0x65, 0x3b, 0x00, 0x00, 0x04, 0x00, 0x00, 0x00,
  0x01, 0x00, 0x00, 0x00, 0x01, 0x00, 0x00, 0x00, 0x28, 0x00, 0x00, 0x00,
  0x20, 0x00, 0x00, 0x00, 0x06, 0xf5, 0xff, 0xff, 0x00, 0x00, 0x00, 0x01,
  0x18, 0x00, 0x00, 0x00, 0x28, 0x00, 0x00, 0x00, 0x48, 0x00, 0x00, 0x00,
  0x13, 0x00, 0x00, 0x00, 0x00, 0x00, 0x00, 0x09, 0x68, 0x00, 0x00, 0x00,
  0x04, 0x00, 0x00, 0x00, 0xff, 0xff, 0xff, 0xff, 0x01, 0x00, 0x00, 0x00,
  0x28, 0x00, 0x00, 0x00, 0x20, 0x00, 0x00, 0x00, 0xf4, 0xf4, 0xff, 0xff,
  0x08, 0x00, 0x00, 0x00, 0x14, 0x00, 0x00, 0x00, 0x01, 0x00, 0x00, 0x00,
  0x80, 0xff, 0xff, 0xff, 0xff, 0xff, 0xff, 0xff, 0x00, 0x00, 0x00, 0x00,
  0x01, 0x00, 0x00, 0x00, 0xc0, 0xcf, 0x02, 0x3d, 0x26, 0x00, 0x00, 0x00,
  0x73, 0x65, 0x71, 0x75, 0x65, 0x6e, 0x74, 0x69, 0x61, 0x6c, 0x5f, 0x31,
  0x2f, 0x6d, 0x61, 0x78, 0x5f, 0x70, 0x6f, 0x6f, 0x6c, 0x69, 0x6e, 0x67,
  0x31, 0x64, 0x5f, 0x31, 0x2f, 0x4d, 0x61, 0x78, 0x50, 0x6f, 0x6f, 0x6c,
  0x31, 0x64, 0x00, 0x00, 0x04, 0x00, 0x00, 0x00, 0x01, 0x00, 0x00, 0x00,
  0x01, 0x00, 0x00, 0x00, 0x28, 0x00, 0x00, 0x00, 0x20, 0x00, 0x00, 0x00,
  0x9e, 0xf5, 0xff, 0xff, 0x00, 0x00, 0x00, 0x01, 0x18, 0x00, 0x00, 0x00,
  0x28, 0x00, 0x00, 0x00, 0x48, 0x00, 0x00, 0x00, 0x12, 0x00, 0x00, 0x00,
  0x00, 0x00, 0x00, 0x09, 0x74, 0x00, 0x00, 0x00, 0x04, 0x00, 0x00, 0x00,
  0xff, 0xff, 0xff, 0xff, 0x01, 0x00, 0x00, 0x00, 0x7a, 0x00, 0x00, 0x00,
  0x20, 0x00, 0x00, 0x00, 0x8c, 0xf5, 0xff, 0xff, 0x08, 0x00, 0x00, 0x00,
  0x14, 0x00, 0x00, 0x00, 0x01, 0x00, 0x00, 0x00, 0x80, 0xff, 0xff, 0xff,
  0xff, 0xff, 0xff, 0xff, 0x00, 0x00, 0x00, 0x00, 0x01, 0x00, 0x00, 0x00,
  0xc0, 0xcf, 0x02, 0x3d, 0x31, 0x00, 0x00, 0x00, 0x73, 0x65, 0x71, 0x75,
  0x65, 0x6e, 0x74, 0x69, 0x61, 0x6c, 0x5f, 0x31, 0x2f, 0x6d, 0x61, 0x78,
  0x5f, 0x70, 0x6f, 0x6f, 0x6c, 0x69, 0x6e, 0x67, 0x31, 0x64, 0x5f, 0x31,
  0x2f, 0x4d, 0x61, 0x78, 0x50, 0x6f, 0x6f, 0x6c, 0x31, 0x64, 0x2f, 0x45,
  0x78, 0x70, 0x61, 0x6e, 0x64, 0x44, 0x69, 0x6d, 0x73, 0x00, 0x00, 0x00,
  0x04, 0x00, 0x00, 0x00, 0x01, 0x00, 0x00, 0x00, 0x01, 0x00, 0x00, 0x00,
  0x7a, 0x00, 0x00, 0x00, 0x20, 0x00, 0x00, 0x00, 0x42, 0xf6, 0xff, 0xff,
  0x00, 0x00, 0x00, 0x01, 0x18, 0x00, 0x00, 0x00, 0x24, 0x00, 0x00, 0x00,
  0x44, 0x00, 0x00, 0x00, 0x11, 0x00, 0x00, 0x00, 0x00, 0x00, 0x00, 0x09,
  0x74, 0x00, 0x00, 0x00, 0x03, 0x00, 0x00, 0x00, 0xff, 0xff, 0xff, 0xff,
  0x7a, 0x00, 0x00, 0x00, 0x20, 0x00, 0x00, 0x00, 0x2c, 0xf6, 0xff, 0xff,
  0x08, 0x00, 0x00, 0x00, 0x14, 0x00, 0x00, 0x00, 0x01, 0x00, 0x00, 0x00,
  0x80, 0xff, 0xff, 0xff, 0xff, 0xff, 0xff, 0xff, 0x00, 0x00, 0x00, 0x00,
  0x01, 0x00, 0x00, 0x00, 0xc0, 0xcf, 0x02, 0x3d, 0x34, 0x00, 0x00, 0x00,
  0x73, 0x65, 0x71, 0x75, 0x65, 0x6e, 0x74, 0x69, 0x61, 0x6c, 0x5f, 0x31,
  0x2f, 0x63, 0x6f, 0x6e, 0x76, 0x31, 0x64, 0x5f, 0x31, 0x2f, 0x52, 0x65,
  0x6c, 0x75, 0x3b, 0x73, 0x65, 0x71, 0x75, 0x65, 0x6e, 0x74, 0x69, 0x61,
  0x6c, 0x5f, 0x31, 0x2f, 0x63, 0x6f, 0x6e, 0x76, 0x31, 0x64, 0x5f, 0x31,
  0x2f, 0x61, 0x64, 0x64, 0x00, 0x00, 0x00, 0x00, 0x03, 0x00, 0x00, 0x00,
  0x01, 0x00, 0x00, 0x00, 0x7a, 0x00, 0x00, 0x00, 0x20, 0x00, 0x00, 0x00,
  0xe2, 0xf6, 0xff, 0xff, 0x00, 0x00, 0x00, 0x01, 0x18, 0x00, 0x00, 0x00,
  0x24, 0x00, 0x00, 0x00, 0x44, 0x00, 0x00, 0x00, 0x10, 0x00, 0x00, 0x00,
  0x00, 0x00, 0x00, 0x09, 0x68, 0x00, 0x00, 0x00, 0x03, 0x00, 0x00, 0x00,
  0xff, 0xff, 0xff, 0xff, 0x7a, 0x00, 0x00, 0x00, 0x20, 0x00, 0x00, 0x00,
  0xcc, 0xf6, 0xff, 0xff, 0x08, 0x00, 0x00, 0x00, 0x14, 0x00, 0x00, 0x00,
  0x01, 0x00, 0x00, 0x00, 0xf9, 0xff, 0xff, 0xff, 0xff, 0xff, 0xff, 0xff,
  0x00, 0x00, 0x00, 0x00, 0x01, 0x00, 0x00, 0x00, 0x5e, 0x63, 0x81, 0x3d,
  0x29, 0x00, 0x00, 0x00, 0x73, 0x65, 0x71, 0x75, 0x65, 0x6e, 0x74, 0x69,
  0x61, 0x6c, 0x5f, 0x31, 0x2f, 0x63, 0x6f, 0x6e, 0x76, 0x31, 0x64, 0x5f,
  0x31, 0x2f, 0x63, 0x6f, 0x6e, 0x76, 0x6f, 0x6c, 0x75, 0x74, 0x69, 0x6f,
  0x6e, 0x2f, 0x53, 0x71, 0x75, 0x65, 0x65, 0x7a, 0x65, 0x00, 0x00, 0x00,
  0x03, 0x00, 0x00, 0x00, 0x01, 0x00, 0x00, 0x00, 0x7a, 0x00, 0x00, 0x00,
  0x20, 0x00, 0x00, 0x00, 0x76, 0xf7, 0xff, 0xff, 0x00, 0x00, 0x00, 0x01,
  0x18, 0x00, 0x00, 0x00, 0x28, 0x00, 0x00, 0x00, 0x44, 0x00, 0x00, 0x00,
  0x0f, 0x00, 0x00, 0x00, 0x00, 0x00, 0x00, 0x09, 0x60, 0x00, 0x00, 0x00,
  0x04, 0x00, 0x00, 0x00, 0xff, 0xff, 0xff, 0xff, 0x01, 0x00, 0x00, 0x00,
  0x7a, 0x00, 0x00, 0x00, 0x20, 0x00, 0x00, 0x00, 0x64, 0xf7, 0xff, 0xff,
  0x08, 0x00, 0x00, 0x00, 0x10, 0x00, 0x00, 0x00, 0x01, 0x00, 0x00, 0x00,
  0xf9, 0xff, 0xff, 0xff, 0xff, 0xff, 0xff, 0xff, 0x01, 0x00, 0x00, 0x00,
  0x5e, 0x63, 0x81, 0x3d, 0x21, 0x00, 0x00, 0x00, 0x73, 0x65, 0x71, 0x75,
  0x65, 0x6e, 0x74, 0x69, 0x61, 0x6c, 0x5f, 0x31, 0x2f, 0x63, 0x6f, 0x6e,
  0x76, 0x31, 0x64, 0x5f, 0x31, 0x2f, 0x63, 0x6f, 0x6e, 0x76, 0x6f, 0x6c,
  0x75, 0x74, 0x69, 0x6f, 0x6e, 0x00, 0x00, 0x00, 0x04, 0x00, 0x00, 0x00,
  0x01, 0x00, 0x00, 0x00, 0x01, 0x00, 0x00, 0x00, 0x7a, 0x00, 0x00, 0x00,
  0x20, 0x00, 0x00, 0x00, 0x06, 0xf8, 0xff, 0xff, 0x00, 0x00, 0x00, 0x01,
  0x18, 0x00, 0x00, 0x00, 0x28, 0x00, 0x00, 0x00, 0x44, 0x00, 0x00, 0x00,
  0x0e, 0x00, 0x00, 0x00, 0x00, 0x00, 0x00, 0x09, 0x6c, 0x00, 0x00, 0x00,
  0x04, 0x00, 0x00, 0x00, 0xff, 0xff, 0xff, 0xff, 0x01, 0x00, 0x00, 0x00,
  0x7d, 0x00, 0x00, 0x00, 0x03, 0x00, 0x00, 0x00, 0xf4, 0xf7, 0xff, 0xff,
  0x08, 0x00, 0x00, 0x00, 0x10, 0x00, 0x00, 0x00, 0x01, 0x00, 0x00, 0x00,
  0x00, 0x00, 0x00, 0x00, 0x00, 0x00, 0x00, 0x00, 0x01, 0x00, 0x00, 0x00,
  0x0e, 0xb4, 0xb1, 0x3d, 0x2c, 0x00, 0x00, 0x00, 0x73, 0x65, 0x71, 0x75,
  0x65, 0x6e, 0x74, 0x69, 0x61, 0x6c, 0x5f, 0x31, 0x2f, 0x63, 0x6f, 0x6e,
  0x76, 0x31, 0x64, 0x5f, 0x31, 0x2f, 0x63, 0x6f, 0x6e, 0x76, 0x6f, 0x6c,
  0x75, 0x74, 0x69, 0x6f, 0x6e, 0x2f, 0x45, 0x78, 0x70, 0x61, 0x6e, 0x64,
  0x44, 0x69, 0x6d, 0x73, 0x00, 0x00, 0x00, 0x00, 0x04, 0x00, 0x00, 0x00,
  0x01, 0x00, 0x00, 0x00, 0x01, 0x00, 0x00, 0x00, 0x7d, 0x00, 0x00, 0x00,
  0x03, 0x00, 0x00, 0x00, 0xa2, 0xf8, 0xff, 0xff, 0x00, 0x00, 0x00, 0x01,
  0x18, 0x00, 0x00, 0x00, 0x24, 0x00, 0x00, 0x00, 0x40, 0x00, 0x00, 0x00,
  0x0d, 0x00, 0x00, 0x00, 0x00, 0x00, 0x00, 0x09, 0x48, 0x00, 0x00, 0x00,
  0x03, 0x00, 0x00, 0x00, 0xff, 0xff, 0xff, 0xff, 0x7d, 0x00, 0x00, 0x00,
  0x03, 0x00, 0x00, 0x00, 0x8c, 0xf8, 0xff, 0xff, 0x08, 0x00, 0x00, 0x00,
  0x10, 0x00, 0x00, 0x00, 0x01, 0x00, 0x00, 0x00, 0x00, 0x00, 0x00, 0x00,
  0x00, 0x00, 0x00, 0x00, 0x01, 0x00, 0x00, 0x00, 0x0e, 0xb4, 0xb1, 0x3d,
  0x0c, 0x00, 0x00, 0x00, 0x74, 0x66, 0x6c, 0x2e, 0x71, 0x75, 0x61, 0x6e,
  0x74, 0x69, 0x7a, 0x65, 0x00, 0x00, 0x00, 0x00, 0x03, 0x00, 0x00, 0x00,
  0x01, 0x00, 0x00, 0x00, 0x7d, 0x00, 0x00, 0x00, 0x03, 0x00, 0x00, 0x00,
  0x6a, 0xf9, 0xff, 0xff, 0x00, 0x00, 0x00, 0x01, 0x14, 0x00, 0x00, 0x00,
  0xa8, 0x01, 0x00, 0x00, 0x0c, 0x00, 0x00, 0x00, 0x00, 0x00, 0x00, 0x09,
  0xb4, 0x01, 0x00, 0x00, 0xec, 0xf8, 0xff, 0xff, 0x08, 0x00, 0x00, 0x00,
  0x0c, 0x01, 0x00, 0x00, 0x20, 0x00, 0x00, 0x00, 0x00, 0x00, 0x00, 0x00,
  0x00, 0x00, 0x00, 0x00, 0x00, 0x00, 0x00, 0x00, 0x00, 0x00, 0x00, 0x00,
  0x00, 0x00, 0x00, 0x00, 0x00, 0x00, 0x00, 0x00, 0x00, 0x00, 0x00, 0x00,
  0x00, 0x00, 0x00, 0x00, 0x00, 0x00, 0x00, 0x00, 0x00, 0x00, 0x00, 0x00,
  0x00, 0x00, 0x00, 0x00, 0x00, 0x00, 0x00, 0x00, 0x00, 0x00, 0x00, 0x00,
  0x00, 0x00, 0x00, 0x00, 0x00, 0x00, 0x00, 0x00, 0x00, 0x00, 0x00, 0x00,
  0x00, 0x00, 0x00, 0x00, 0x00, 0x00, 0x00, 0x00, 0x00, 0x00, 0x00, 0x00,
  0x00, 0x00, 0x00, 0x00, 0x00, 0x00, 0x00, 0x00, 0x00, 0x00, 0x00, 0x00,
  0x00, 0x00, 0x00, 0x00, 0x00, 0x00, 0x00, 0x00, 0x00, 0x00, 0x00, 0x00,
  0x00, 0x00, 0x00, 0x00, 0x00, 0x00, 0x00, 0x00, 0x00, 0x00, 0x00, 0x00,
  0x00, 0x00, 0x00, 0x00, 0x00, 0x00, 0x00, 0x00, 0x00, 0x00, 0x00, 0x00,
  0x00, 0x00, 0x00, 0x00, 0x00, 0x00, 0x00, 0x00, 0x00, 0x00, 0x00, 0x00,
  0x00, 0x00, 0x00, 0x00, 0x00, 0x00, 0x00, 0x00, 0x00, 0x00, 0x00, 0x00,
  0x00, 0x00, 0x00, 0x00, 0x00, 0x00, 0x00, 0x00, 0x00, 0x00, 0x00, 0x00,
  0x00, 0x00, 0x00, 0x00, 0x00, 0x00, 0x00, 0x00, 0x00, 0x00, 0x00, 0x00,
  0x00, 0x00, 0x00, 0x00, 0x00, 0x00, 0x00, 0x00, 0x00, 0x00, 0x00, 0x00,
  0x00, 0x00, 0x00, 0x00, 0x00, 0x00, 0x00, 0x00, 0x00, 0x00, 0x00, 0x00,
  0x00, 0x00, 0x00, 0x00, 0x00, 0x00, 0x00, 0x00, 0x00, 0x00, 0x00, 0x00,
  0x00, 0x00, 0x00, 0x00, 0x00, 0x00, 0x00, 0x00, 0x00, 0x00, 0x00, 0x00,
  0x00, 0x00, 0x00, 0x00, 0x00, 0x00, 0x00, 0x00, 0x00, 0x00, 0x00, 0x00,
  0x00, 0x00, 0x00, 0x00, 0x00, 0x00, 0x00, 0x00, 0x00, 0x00, 0x00, 0x00,
  0x00, 0x00, 0x00, 0x00, 0x00, 0x00, 0x00, 0x00, 0x00, 0x00, 0x00, 0x00,
  0x00, 0x00, 0x00, 0x00, 0x20, 0x00, 0x00, 0x00, 0x4c, 0xac, 0x16, 0x3b,
  0x82, 0x46, 0x1e, 0x3b, 0x2d, 0x54, 0xfc, 0x3a, 0xe1, 0x91, 0x0e, 0x3b,
  0x13, 0xe4, 0x26, 0x3b, 0xa2, 0xb0, 0x47, 0x3b, 0x76, 0x84, 0x6c, 0x3b,
  0x6d, 0x3e, 0x1d, 0x3b, 0x8e, 0xdc, 0x2e, 0x3b, 0x0d, 0x7e, 0x5c, 0x3b,
  0xca, 0x01, 0x19, 0x3b, 0xcd, 0x70, 0x32, 0x3b, 0x85, 0x71, 0xe8, 0x3a,
  0xbe, 0x39, 0xf6, 0x3a, 0x0e, 0x02, 0x22, 0x3b, 0x01, 0x6f, 0x1a, 0x3b,
  0x02, 0x1d, 0x51, 0x3b, 0xa8, 0x52, 0x2d, 0x3b, 0x0b, 0x40, 0x39, 0x3b,
  0x79, 0x59, 0xf6, 0x3a, 0xf0, 0x70, 0x28, 0x3b, 0xc6, 0x56, 0x3e, 0x3b,
  0xe9, 0x6e, 0x08, 0x3b, 0x42, 0x6f, 0xad, 0x3a, 0x27, 0x9e, 0x0e, 0x3b,
  0x91, 0xd1, 0x17, 0x3b, 0xe8, 0x42, 0xc7, 0x3a, 0xf5, 0xce, 0x10, 0x3b,
  0xdb, 0x1c, 0x37, 0x3b, 0xb7, 0xc8, 0x08, 0x3b, 0xa7, 0xcf, 0x27, 0x3b,
  0x72, 0x76, 0x65, 0x3b, 0x12, 0x00, 0x00, 0x00, 0x74, 0x66, 0x6c, 0x2e,
  0x70, 0x73, 0x65, 0x75, 0x64, 0x6f, 0x5f, 0x71, 0x63, 0x6f, 0x6e, 0x73,
  0x74, 0x36, 0x00, 0x00, 0x04, 0x00, 0x00, 0x00, 0x20, 0x00, 0x00, 0x00,
  0x01, 0x00, 0x00, 0x00, 0x04, 0x00, 0x00, 0x00, 0x03, 0x00, 0x00, 0x00,
  0x4a, 0xfb, 0xff, 0xff, 0x00, 0x00, 0x00, 0x01, 0x14, 0x00, 0x00, 0x00,
  0xa4, 0x01, 0x00, 0x00, 0x0b, 0x00, 0x00, 0x00, 0x00, 0x00, 0x00, 0x02,
  0xb0, 0x01, 0x00, 0x00, 0xcc, 0xfa, 0xff, 0xff, 0x08, 0x00, 0x00, 0x00,
  0x08, 0x01, 0x00, 0x00, 0x20, 0x00, 0x00, 0x00, 0x00, 0x00, 0x00, 0x00,
  0x00, 0x00, 0x00, 0x00, 0x00, 0x00, 0x00, 0x00, 0x00, 0x00, 0x00, 0x00,
  0x00, 0x00, 0x00, 0x00, 0x00, 0x00, 0x00, 0x00, 0x00, 0x00, 0x00, 0x00,
  0x00, 0x00, 0x00, 0x00, 0x00, 0x00, 0x00, 0x00, 0x00, 0x00, 0x00, 0x00,
  0x00, 0x00, 0x00, 0x00, 0x00, 0x00, 0x00, 0x00, 0x00, 0x00, 0x00, 0x00,
  0x00, 0x00, 0x00, 0x00, 0x00, 0x00, 0x00, 0x00, 0x00, 0x00, 0x00, 0x00,
  0x00, 0x00, 0x00, 0x00, 0x00, 0x00, 0x00, 0x00, 0x00, 0x00, 0x00, 0x00,
  0x00, 0x00, 0x00, 0x00, 0x00, 0x00, 0x00, 0x00, 0x00, 0x00, 0x00, 0x00,
  0x00, 0x00, 0x00, 0x00, 0x00, 0x00, 0x00, 0x00, 0x00, 0x00, 0x00, 0x00,
  0x00, 0x00, 0x00, 0x00, 0x00, 0x00, 0x00, 0x00, 0x00, 0x00, 0x00, 0x00,
  0x00, 0x00, 0x00, 0x00, 0x00, 0x00, 0x00, 0x00, 0x00, 0x00, 0x00, 0x00,
  0x00, 0x00, 0x00, 0x00, 0x00, 0x00, 0x00, 0x00, 0x00, 0x00, 0x00, 0x00,
  0x00, 0x00, 0x00, 0x00, 0x00, 0x00, 0x00, 0x00, 0x00, 0x00, 0x00, 0x00,
  0x00, 0x00, 0x00, 0x00, 0x00, 0x00, 0x00, 0x00, 0x00, 0x00, 0x00, 0x00,
  0x00, 0x00, 0x00, 0x00, 0x00, 0x00, 0x00, 0x00, 0x00, 0x00, 0x00, 0x00,
  0x00, 0x00, 0x00, 0x00, 0x00, 0x00, 0x00, 0x00, 0x00, 0x00, 0x00, 0x00,
  0x00, 0x00, 0x00, 0x00, 0x00, 0x00, 0x00, 0x00, 0x00, 0x00, 0x00, 0x00,
  0x00, 0x00, 0x00, 0x00, 0x00, 0x00, 0x00, 0x00, 0x00, 0x00, 0x00, 0x00,
  0x00, 0x00, 0x00, 0x00, 0x00, 0x00, 0x00, 0x00, 0x00, 0x00, 0x00, 0x00,
  0x00, 0x00, 0x00, 0x00, 0x00, 0x00, 0x00, 0x00, 0x00, 0x00, 0x00, 0x00,
  0x00, 0x00, 0x00, 0x00, 0x00, 0x00, 0x00, 0x00, 0x00, 0x00, 0x00, 0x00,
  0x00, 0x00, 0x00, 0x00, 0x00, 0x00, 0x00, 0x00, 0x00, 0x00, 0x00, 0x00,
  0x20, 0x00, 0x00, 0x00, 0x34, 0x2e, 0x51, 0x39, 0x24, 0xbc, 0x5b, 0x39,
  0xac, 0x27, 0x2f, 0x39, 0x46, 0xee, 0x45, 0x39, 0x25, 0xb2, 0x67, 0x39,
  0x93, 0x9d, 0x8a, 0x39, 0xf0, 0x2d, 0xa4, 0x39, 0x84, 0x4d, 0x5a, 0x39,
  0xf6, 0xc2, 0x72, 0x39, 0x3c, 0x0e, 0x99, 0x39, 0xb5, 0x6b, 0x54, 0x39,
  0xfe, 0xba, 0x77, 0x39, 0xf9, 0x59, 0x21, 0x39, 0x1a, 0xeb, 0x2a, 0x39,
  0xbc, 0xea, 0x60, 0x39, 0xbc, 0x66, 0x56, 0x39, 0x22, 0x28, 0x91, 0x39,
  0x1c, 0xa0, 0x70, 0x39, 0x93, 0x97, 0x80, 0x39, 0x21, 0x01, 0x2b, 0x39,
  0x1d, 0xd9, 0x69, 0x39, 0xde, 0x1f, 0x84, 0x39, 0x49, 0x69, 0x3d, 0x39,
  0xd1, 0xc7, 0xf0, 0x38, 0x50, 0xff, 0x45, 0x39, 0x5a, 0xc5, 0x52, 0x39,
  0x68, 0x51, 0x0a, 0x39, 0xe2, 0x09, 0x49, 0x39, 0x7b, 0x37, 0x7e, 0x39,
  0xf6, 0xe5, 0x3d, 0x39, 0x33, 0xf9, 0x68, 0x39, 0x49, 0x48, 0x9f, 0x39,
  0x12, 0x00, 0x00, 0x00, 0x74, 0x66, 0x6c, 0x2e, 0x70, 0x73, 0x65, 0x75,
  0x64, 0x6f, 0x5f, 0x71, 0x63, 0x6f, 0x6e, 0x73, 0x74, 0x35, 0x00, 0x00,
  0x01, 0x00, 0x00, 0x00, 0x20, 0x00, 0x00, 0x00, 0x1a, 0xfd, 0xff, 0xff,
  0x00, 0x00, 0x00, 0x01, 0x14, 0x00, 0x00, 0x00, 0x34, 0x00, 0x00, 0x00,
  0x0a, 0x00, 0x00, 0x00, 0x00, 0x00, 0x00, 0x09, 0x40, 0x00, 0x00, 0x00,
  0x9c, 0xfc, 0xff, 0xff, 0x08, 0x00, 0x00, 0x00, 0x14, 0x00, 0x00, 0x00,
  0x01, 0x00, 0x00, 0x00, 0x1e, 0x00, 0x00, 0x00, 0x00, 0x00, 0x00, 0x00,
  0x00, 0x00, 0x00, 0x00, 0x01, 0x00, 0x00, 0x00, 0x5f, 0xdf, 0x69, 0x3b,
  0x12, 0x00, 0x00, 0x00, 0x74, 0x66, 0x6c, 0x2e, 0x70, 0x73, 0x65, 0x75,
  0x64, 0x6f, 0x5f, 0x71, 0x63, 0x6f, 0x6e, 0x73, 0x74, 0x34, 0x00, 0x00,
  0x03, 0x00, 0x00, 0x00, 0x01, 0x00, 0x00, 0x00, 0x01, 0x00, 0x00, 0x00,
  0x20, 0x00, 0x00, 0x00, 0x82, 0xfd, 0xff, 0xff, 0x00, 0x00, 0x00, 0x01,
  0x14, 0x00, 0x00, 0x00, 0x34, 0x00, 0x00, 0x00, 0x09, 0x00, 0x00, 0x00,
  0x00, 0x00, 0x00, 0x09, 0x40, 0x00, 0x00, 0x00, 0x04, 0xfd, 0xff, 0xff,
  0x08, 0x00, 0x00, 0x00, 0x14, 0x00, 0x00, 0x00, 0x01, 0x00, 0x00, 0x00,
  0x80, 0xff, 0xff, 0xff, 0xff, 0xff, 0xff, 0xff, 0x00, 0x00, 0x00, 0x00,
  0x01, 0x00, 0x00, 0x00, 0xfc, 0x12, 0x6c, 0x3d, 0x12, 0x00, 0x00, 0x00,
  0x74, 0x66, 0x6c, 0x2e, 0x70, 0x73, 0x65, 0x75, 0x64, 0x6f, 0x5f, 0x71,
  0x63, 0x6f, 0x6e, 0x73, 0x74, 0x33, 0x00, 0x00, 0x01, 0x00, 0x00, 0x00,
  0x20, 0x00, 0x00, 0x00, 0xe2, 0xfd, 0xff, 0xff, 0x00, 0x00, 0x00, 0x01,
  0x14, 0x00, 0x00, 0x00, 0x34, 0x00, 0x00, 0x00, 0x08, 0x00, 0x00, 0x00,
  0x00, 0x00, 0x00, 0x09, 0x40, 0x00, 0x00, 0x00, 0x64, 0xfd, 0xff, 0xff,
  0x08, 0x00, 0x00, 0x00, 0x14, 0x00, 0x00, 0x00, 0x01, 0x00, 0x00, 0x00,
  0x7f, 0x00, 0x00, 0x00, 0x00, 0x00, 0x00, 0x00, 0x00, 0x00, 0x00, 0x00,
  0x01, 0x00, 0x00, 0x00, 0x51, 0xfa, 0xe8, 0x3b, 0x12, 0x00, 0x00, 0x00,
  0x74, 0x66, 0x6c, 0x2e, 0x70, 0x73, 0x65, 0x75, 0x64, 0x6f, 0x5f, 0x71,
  0x63, 0x6f, 0x6e, 0x73, 0x74, 0x32, 0x00, 0x00, 0x01, 0x00, 0x00, 0x00,
  0x20, 0x00, 0x00, 0x00, 0x42, 0xfe, 0xff, 0xff, 0x00, 0x00, 0x00, 0x01,
  0x14, 0x00, 0x00, 0x00, 0x58, 0x00, 0x00, 0x00, 0x07, 0x00, 0x00, 0x00,
  0x00, 0x00, 0x00, 0x09, 0x64, 0x00, 0x00, 0x00, 0xc4, 0xfd, 0xff, 0xff,
  0x08, 0x00, 0x00, 0x00, 0x2c, 0x00, 0x00, 0x00, 0x04, 0x00, 0x00, 0x00,
  0x00, 0x00, 0x00, 0x00, 0x00, 0x00, 0x00, 0x00, 0x00, 0x00, 0x00, 0x00,
  0x00, 0x00, 0x00, 0x00, 0x00, 0x00, 0x00, 0x00, 0x00, 0x00, 0x00, 0x00,
  0x00, 0x00, 0x00, 0x00, 0x00, 0x00, 0x00, 0x00, 0x00, 0x00, 0x00, 0x00,
  0x04, 0x00, 0x00, 0x00, 0x4d, 0x0f, 0x4c, 0x3b, 0x24, 0xeb, 0x03, 0x3b,
  0xde, 0x06, 0x60, 0x3b, 0xbc, 0x94, 0x31, 0x3b, 0x12, 0x00, 0x00, 0x00,
  0x74, 0x66, 0x6c, 0x2e, 0x70, 0x73, 0x65, 0x75, 0x64, 0x6f, 0x5f, 0x71,
  0x63, 0x6f, 0x6e, 0x73, 0x74, 0x31, 0x00, 0x00, 0x02, 0x00, 0x00, 0x00,
  0x04, 0x00, 0x00, 0x00, 0x00, 0x05, 0x00, 0x00, 0xca, 0xfe, 0xff, 0xff,
  0x00, 0x00, 0x00, 0x01, 0x14, 0x00, 0x00, 0x00, 0x58, 0x00, 0x00, 0x00,
  0x06, 0x00, 0x00, 0x00, 0x00, 0x00, 0x00, 0x02, 0x64, 0x00, 0x00, 0x00,
  0x4c, 0xfe, 0xff, 0xff, 0x08, 0x00, 0x00, 0x00, 0x2c, 0x00, 0x00, 0x00,
  0x04, 0x00, 0x00, 0x00, 0x00, 0x00, 0x00, 0x00, 0x00, 0x00, 0x00, 0x00,
  0x00, 0x00, 0x00, 0x00, 0x00, 0x00, 0x00, 0x00, 0x00, 0x00, 0x00, 0x00,
  0x00, 0x00, 0x00, 0x00, 0x00, 0x00, 0x00, 0x00, 0x00, 0x00, 0x00, 0x00,
  0x00, 0x00, 0x00, 0x00, 0x04, 0x00, 0x00, 0x00, 0x88, 0xc8, 0x2d, 0x3a,
  0x01, 0xb1, 0xe0, 0x39, 0xb2, 0xc9, 0x3e, 0x3a, 0xb4, 0x3b, 0x17, 0x3a,
  0x11, 0x00, 0x00, 0x00, 0x74, 0x66, 0x6c, 0x2e, 0x70, 0x73, 0x65, 0x75,
  0x64, 0x6f, 0x5f, 0x71, 0x63, 0x6f, 0x6e, 0x73, 0x74, 0x00, 0x00, 0x00,
  0x01, 0x00, 0x00, 0x00, 0x04, 0x00, 0x00, 0x00, 0x4e, 0xff, 0xff, 0xff,
  0x00, 0x00, 0x00, 0x01, 0x14, 0x00, 0x00, 0x00, 0x14, 0x00, 0x00, 0x00,
  0x05, 0x00, 0x00, 0x00, 0x00, 0x00, 0x00, 0x02, 0x1c, 0x00, 0x00, 0x00,
  0x38, 0xff, 0xff, 0xff, 0x0f, 0x00, 0x00, 0x00, 0x61, 0x72, 0x69, 0x74,
  0x68, 0x2e, 0x63, 0x6f, 0x6e, 0x73, 0x74, 0x61, 0x6e, 0x74, 0x33, 0x00,
  0x01, 0x00, 0x00, 0x00, 0x02, 0x00, 0x00, 0x00, 0x8a, 0xff, 0xff, 0xff,
  0x00, 0x00, 0x00, 0x01, 0x14, 0x00, 0x00, 0x00, 0x14, 0x00, 0x00, 0x00,
  0x04, 0x00, 0x00, 0x00, 0x00, 0x00, 0x00, 0x02, 0x1c, 0x00, 0x00, 0x00,
  0x74, 0xff, 0xff, 0xff, 0x0f, 0x00, 0x00, 0x00, 0x61, 0x72, 0x69, 0x74,
  0x68, 0x2e, 0x63, 0x6f, 0x6e, 0x73, 0x74, 0x61, 0x6e, 0x74, 0x32, 0x00,
  0x00, 0x00, 0x00, 0x00, 0xc2, 0xff, 0xff, 0xff, 0x00, 0x00, 0x00, 0x01,
  0x14, 0x00, 0x00, 0x00, 0x14, 0x00, 0x00, 0x00, 0x03, 0x00, 0x00, 0x00,
  0x00, 0x00, 0x00, 0x02, 0x1c, 0x00, 0x00, 0x00, 0xac, 0xff, 0xff, 0xff,
  0x0f, 0x00, 0x00, 0x00, 0x61, 0x72, 0x69, 0x74, 0x68, 0x2e, 0x63, 0x6f,
  0x6e, 0x73, 0x74, 0x61, 0x6e, 0x74, 0x31, 0x00, 0x01, 0x00, 0x00, 0x00,
  0x03, 0x00, 0x00, 0x00, 0x00, 0x00, 0x16, 0x00, 0x1c, 0x00, 0x18, 0x00,
  0x17, 0x00, 0x10, 0x00, 0x0c, 0x00, 0x08, 0x00, 0x00, 0x00, 0x00, 0x00,
  0x00, 0x00, 0x07, 0x00, 0x16, 0x00, 0x00, 0x00, 0x00, 0x00, 0x00, 0x01,
  0x18, 0x00, 0x00, 0x00, 0x18, 0x00, 0x00, 0x00, 0x02, 0x00, 0x00, 0x00,
  0x00, 0x00, 0x00, 0x02, 0x20, 0x00, 0x00, 0x00, 0x04, 0x00, 0x04, 0x00,
  0x04, 0x00, 0x00, 0x00, 0x0e, 0x00, 0x00, 0x00, 0x61, 0x72, 0x69, 0x74,
  0x68, 0x2e, 0x63, 0x6f, 0x6e, 0x73, 0x74, 0x61, 0x6e, 0x74, 0x00, 0x00,
  0x00, 0x00, 0x00, 0x00, 0x00, 0x00, 0x16, 0x00, 0x20, 0x00, 0x1c, 0x00,
  0x1b, 0x00, 0x14, 0x00, 0x10, 0x00, 0x0c, 0x00, 0x00, 0x00, 0x00, 0x00,
  0x08, 0x00, 0x07, 0x00, 0x16, 0x00, 0x00, 0x00, 0x00, 0x00, 0x00, 0x01,
  0x18, 0x00, 0x00, 0x00, 0x30, 0x00, 0x00, 0x00, 0x50, 0x00, 0x00, 0x00,
  0x01, 0x00, 0x00, 0x00, 0x00, 0x00, 0x00, 0x03, 0x68, 0x00, 0x00, 0x00,
  0x03, 0x00, 0x00, 0x00, 0xff, 0xff, 0xff, 0xff, 0x7d, 0x00, 0x00, 0x00,
  0x03, 0x00, 0x00, 0x00, 0x0c, 0x00, 0x0c, 0x00, 0x00, 0x00, 0x00, 0x00,
  0x08, 0x00, 0x04, 0x00, 0x0c, 0x00, 0x00, 0x00, 0x08, 0x00, 0x00, 0x00,
  0x14, 0x00, 0x00, 0x00, 0x01, 0x00, 0x00, 0x00, 0x80, 0x00, 0x00, 0x00,
  0x00, 0x00, 0x00, 0x00, 0x00, 0x00, 0x00, 0x00, 0x01, 0x00, 0x00, 0x00,
  0x0e, 0xb4, 0xb1, 0x3d, 0x1d, 0x00, 0x00, 0x00, 0x73, 0x65, 0x72, 0x76,
  0x69, 0x6e, 0x67, 0x5f, 0x64, 0x65, 0x66, 0x61, 0x75, 0x6c, 0x74, 0x5f,
  0x69, 0x6e, 0x70, 0x75, 0x74, 0x5f, 0x6c, 0x61, 0x79, 0x65, 0x72, 0x3a,
  0x30, 0x00, 0x00, 0x00, 0x03, 0x00, 0x00, 0x00, 0x01, 0x00, 0x00, 0x00,
  0x7d, 0x00, 0x00, 0x00, 0x03, 0x00, 0x00, 0x00, 0x09, 0x00, 0x00, 0x00,
  0xc0, 0x00, 0x00, 0x00, 0xa4, 0x00, 0x00, 0x00, 0x90, 0x00, 0x00, 0x00,
  0x74, 0x00, 0x00, 0x00, 0x68, 0x00, 0x00, 0x00, 0x4c, 0x00, 0x00, 0x00,
  0x2c, 0x00, 0x00, 0x00, 0x18, 0x00, 0x00, 0x00, 0x04, 0x00, 0x00, 0x00,
  0x98, 0xff, 0xff, 0xff, 0x19, 0x00, 0x00, 0x00, 0x02, 0x00, 0x00, 0x00,
  0x00, 0x00, 0x00, 0x19, 0xa8, 0xff, 0xff, 0xff, 0x09, 0x00, 0x00, 0x00,
  0x04, 0x00, 0x00, 0x00, 0x00, 0x00, 0x00, 0x09, 0xb8, 0xff, 0xff, 0xff,
  0x12, 0x00, 0x00, 0x00, 0x02, 0x00, 0x00, 0x00, 0x00, 0x00, 0x00, 0x12,
  0x0c, 0x00, 0x0e, 0x00, 0x0d, 0x00, 0x00, 0x00, 0x08, 0x00, 0x04, 0x00,
  0x0c, 0x00, 0x00, 0x00, 0x11, 0x00, 0x00, 0x00, 0x02, 0x00, 0x00, 0x00,
  0x00, 0x11, 0x0a, 0x00, 0x08, 0x00, 0x00, 0x00, 0x00, 0x00, 0x04, 0x00,
  0x0a, 0x00, 0x00, 0x00, 0x02, 0x00, 0x00, 0x00, 0xcc, 0xff, 0xff, 0xff,
  0x16, 0x00, 0x00, 0x00, 0x00, 0x00, 0x00, 0x16, 0x0c, 0x00, 0x10, 0x00,
  0x0f, 0x00, 0x00, 0x00, 0x08, 0x00, 0x04, 0x00, 0x0c, 0x00, 0x00, 0x00,
  0x03, 0x00, 0x00, 0x00, 0x03, 0x00, 0x00, 0x00, 0x00, 0x00, 0x00, 0x03,
  0xf4, 0xff, 0xff, 0xff, 0x46, 0x00, 0x00, 0x00, 0x00, 0x00, 0x00, 0x46,
  0x0c, 0x00, 0x0c, 0x00, 0x0b, 0x00, 0x00, 0x00, 0x00, 0x00, 0x04, 0x00,
  0x0c, 0x00, 0x00, 0x00, 0x72, 0x00, 0x00, 0x00, 0x00, 0x00, 0x00, 0x72
};
const unsigned int outputs_model_tflite_len = 11688;
